unsigned char autoencoder_model_INT8_tflite[] = {
  0x1c, 0x00, 0x00, 0x00, 0x54, 0x46, 0x4c, 0x33, 0x14, 0x00, 0x20, 0x00,
  0x1c, 0x00, 0x18, 0x00, 0x14, 0x00, 0x10, 0x00, 0x0c, 0x00, 0x00, 0x00,
  0x08, 0x00, 0x04, 0x00, 0x14, 0x00, 0x00, 0x00, 0x1c, 0x00, 0x00, 0x00,
  0x8c, 0x00, 0x00, 0x00, 0x04, 0x01, 0x00, 0x00, 0xfc, 0x20, 0x00, 0x00,
  0x0c, 0x21, 0x00, 0x00, 0x98, 0x61, 0x00, 0x00, 0x03, 0x00, 0x00, 0x00,
  0x01, 0x00, 0x00, 0x00, 0x04, 0x00, 0x00, 0x00, 0x3a, 0xd8, 0xff, 0xff,
  0x0c, 0x00, 0x00, 0x00, 0x1c, 0x00, 0x00, 0x00, 0x3c, 0x00, 0x00, 0x00,
  0x0f, 0x00, 0x00, 0x00, 0x73, 0x65, 0x72, 0x76, 0x69, 0x6e, 0x67, 0x5f,
  0x64, 0x65, 0x66, 0x61, 0x75, 0x6c, 0x74, 0x00, 0x01, 0x00, 0x00, 0x00,
  0x04, 0x00, 0x00, 0x00, 0xc0, 0xdd, 0xff, 0xff, 0x42, 0x00, 0x00, 0x00,
  0x04, 0x00, 0x00, 0x00, 0x08, 0x00, 0x00, 0x00, 0x6f, 0x75, 0x74, 0x70,
  0x75, 0x74, 0x5f, 0x30, 0x00, 0x00, 0x00, 0x00, 0x01, 0x00, 0x00, 0x00,
  0x04, 0x00, 0x00, 0x00, 0xc6, 0xda, 0xff, 0xff, 0x04, 0x00, 0x00, 0x00,
  0x0f, 0x00, 0x00, 0x00, 0x6b, 0x65, 0x72, 0x61, 0x73, 0x5f, 0x74, 0x65,
  0x6e, 0x73, 0x6f, 0x72, 0x5f, 0x31, 0x33, 0x00, 0x03, 0x00, 0x00, 0x00,
  0x54, 0x00, 0x00, 0x00, 0x2c, 0x00, 0x00, 0x00, 0x04, 0x00, 0x00, 0x00,
  0x10, 0xde, 0xff, 0xff, 0x46, 0x00, 0x00, 0x00, 0x04, 0x00, 0x00, 0x00,
  0x13, 0x00, 0x00, 0x00, 0x43, 0x4f, 0x4e, 0x56, 0x45, 0x52, 0x53, 0x49,
  0x4f, 0x4e, 0x5f, 0x4d, 0x45, 0x54, 0x41, 0x44, 0x41, 0x54, 0x41, 0x00,
  0x34, 0xde, 0xff, 0xff, 0x45, 0x00, 0x00, 0x00, 0x04, 0x00, 0x00, 0x00,
  0x13, 0x00, 0x00, 0x00, 0x6d, 0x69, 0x6e, 0x5f, 0x72, 0x75, 0x6e, 0x74,
  0x69, 0x6d, 0x65, 0x5f, 0x76, 0x65, 0x72, 0x73, 0x69, 0x6f, 0x6e, 0x00,
  0x58, 0xde, 0xff, 0xff, 0x44, 0x00, 0x00, 0x00, 0x04, 0x00, 0x00, 0x00,
  0x13, 0x00, 0x00, 0x00, 0x6d, 0x69, 0x6e, 0x5f, 0x72, 0x75, 0x6e, 0x74,
  0x69, 0x6d, 0x65, 0x5f, 0x76, 0x65, 0x72, 0x73, 0x69, 0x6f, 0x6e, 0x00,
  0x47, 0x00, 0x00, 0x00, 0xf4, 0x1f, 0x00, 0x00, 0xec, 0x1f, 0x00, 0x00,
  0xd8, 0x1f, 0x00, 0x00, 0xbc, 0x1f, 0x00, 0x00, 0xa0, 0x1f, 0x00, 0x00,
  0x88, 0x1f, 0x00, 0x00, 0x74, 0x1f, 0x00, 0x00, 0x60, 0x1f, 0x00, 0x00,
  0x4c, 0x1f, 0x00, 0x00, 0x38, 0x1f, 0x00, 0x00, 0x20, 0x1f, 0x00, 0x00,
  0x18, 0x1f, 0x00, 0x00, 0xfc, 0x1e, 0x00, 0x00, 0xe4, 0x1e, 0x00, 0x00,
  0xc8, 0x1e, 0x00, 0x00, 0xac, 0x1e, 0x00, 0x00, 0x90, 0x1e, 0x00, 0x00,
  0x74, 0x1e, 0x00, 0x00, 0x58, 0x1e, 0x00, 0x00, 0x3c, 0x1e, 0x00, 0x00,
  0x9c, 0x1d, 0x00, 0x00, 0x4c, 0x1d, 0x00, 0x00, 0xbc, 0x1b, 0x00, 0x00,
  0x8c, 0x1b, 0x00, 0x00, 0xbc, 0x1a, 0x00, 0x00, 0x0c, 0x19, 0x00, 0x00,
  0x7c, 0x12, 0x00, 0x00, 0x2c, 0x12, 0x00, 0x00, 0x9c, 0x0b, 0x00, 0x00,
  0x6c, 0x0b, 0x00, 0x00, 0xdc, 0x09, 0x00, 0x00, 0x8c, 0x09, 0x00, 0x00,
  0x7c, 0x03, 0x00, 0x00, 0xec, 0x02, 0x00, 0x00, 0xbc, 0x01, 0x00, 0x00,
  0xb4, 0x01, 0x00, 0x00, 0xac, 0x01, 0x00, 0x00, 0xa4, 0x01, 0x00, 0x00,
  0x9c, 0x01, 0x00, 0x00, 0x94, 0x01, 0x00, 0x00, 0x8c, 0x01, 0x00, 0x00,
  0x84, 0x01, 0x00, 0x00, 0x7c, 0x01, 0x00, 0x00, 0x74, 0x01, 0x00, 0x00,
  0x6c, 0x01, 0x00, 0x00, 0x64, 0x01, 0x00, 0x00, 0x5c, 0x01, 0x00, 0x00,
  0x54, 0x01, 0x00, 0x00, 0x4c, 0x01, 0x00, 0x00, 0x44, 0x01, 0x00, 0x00,
  0x3c, 0x01, 0x00, 0x00, 0x34, 0x01, 0x00, 0x00, 0x2c, 0x01, 0x00, 0x00,
  0x24, 0x01, 0x00, 0x00, 0x1c, 0x01, 0x00, 0x00, 0x14, 0x01, 0x00, 0x00,
  0x0c, 0x01, 0x00, 0x00, 0x04, 0x01, 0x00, 0x00, 0xfc, 0x00, 0x00, 0x00,
  0xf4, 0x00, 0x00, 0x00, 0xec, 0x00, 0x00, 0x00, 0xe4, 0x00, 0x00, 0x00,
  0xdc, 0x00, 0x00, 0x00, 0xd4, 0x00, 0x00, 0x00, 0xcc, 0x00, 0x00, 0x00,
  0xc4, 0x00, 0x00, 0x00, 0xbc, 0x00, 0x00, 0x00, 0xb4, 0x00, 0x00, 0x00,
  0x94, 0x00, 0x00, 0x00, 0x74, 0x00, 0x00, 0x00, 0x04, 0x00, 0x00, 0x00,
  0x7e, 0xdc, 0xff, 0xff, 0x04, 0x00, 0x00, 0x00, 0x60, 0x00, 0x00, 0x00,
  0x0c, 0x00, 0x00, 0x00, 0x08, 0x00, 0x0e, 0x00, 0x08, 0x00, 0x04, 0x00,
  0x08, 0x00, 0x00, 0x00, 0x10, 0x00, 0x00, 0x00, 0x28, 0x00, 0x00, 0x00,
  0x00, 0x00, 0x06, 0x00, 0x08, 0x00, 0x04, 0x00, 0x06, 0x00, 0x00, 0x00,
  0x04, 0x00, 0x00, 0x00, 0x01, 0x00, 0x00, 0x00, 0xeb, 0x03, 0x00, 0x00,
  0x0c, 0x00, 0x18, 0x00, 0x14, 0x00, 0x10, 0x00, 0x0c, 0x00, 0x04, 0x00,
  0x0c, 0x00, 0x00, 0x00, 0xc5, 0x7d, 0x37, 0x8d, 0xb3, 0x5e, 0x8b, 0xd4,
  0x02, 0x00, 0x00, 0x00, 0x02, 0x00, 0x00, 0x00, 0x04, 0x00, 0x00, 0x00,
  0x06, 0x00, 0x00, 0x00, 0x32, 0x2e, 0x31, 0x38, 0x2e, 0x30, 0x00, 0x00,
  0xea, 0xdc, 0xff, 0xff, 0x04, 0x00, 0x00, 0x00, 0x10, 0x00, 0x00, 0x00,
  0x00, 0x00, 0x00, 0x00, 0x00, 0x00, 0x00, 0x00, 0x00, 0x00, 0x00, 0x00,
  0x00, 0x00, 0x00, 0x00, 0x06, 0xdd, 0xff, 0xff, 0x04, 0x00, 0x00, 0x00,
  0x10, 0x00, 0x00, 0x00, 0x32, 0x2e, 0x31, 0x33, 0x2e, 0x30, 0x00, 0x00,
  0x00, 0x00, 0x00, 0x00, 0x00, 0x00, 0x00, 0x00, 0xf4, 0xa1, 0xff, 0xff,
  0xf8, 0xa1, 0xff, 0xff, 0xfc, 0xa1, 0xff, 0xff, 0x00, 0xa2, 0xff, 0xff,
  0x04, 0xa2, 0xff, 0xff, 0x08, 0xa2, 0xff, 0xff, 0x0c, 0xa2, 0xff, 0xff,
  0x10, 0xa2, 0xff, 0xff, 0x14, 0xa2, 0xff, 0xff, 0x18, 0xa2, 0xff, 0xff,
  0x1c, 0xa2, 0xff, 0xff, 0x20, 0xa2, 0xff, 0xff, 0x24, 0xa2, 0xff, 0xff,
  0x28, 0xa2, 0xff, 0xff, 0x2c, 0xa2, 0xff, 0xff, 0x30, 0xa2, 0xff, 0xff,
  0x34, 0xa2, 0xff, 0xff, 0x38, 0xa2, 0xff, 0xff, 0x3c, 0xa2, 0xff, 0xff,
  0x40, 0xa2, 0xff, 0xff, 0x44, 0xa2, 0xff, 0xff, 0x48, 0xa2, 0xff, 0xff,
  0x4c, 0xa2, 0xff, 0xff, 0x50, 0xa2, 0xff, 0xff, 0x54, 0xa2, 0xff, 0xff,
  0x58, 0xa2, 0xff, 0xff, 0x5c, 0xa2, 0xff, 0xff, 0x60, 0xa2, 0xff, 0xff,
  0x64, 0xa2, 0xff, 0xff, 0x68, 0xa2, 0xff, 0xff, 0x6c, 0xa2, 0xff, 0xff,
  0x70, 0xa2, 0xff, 0xff, 0x74, 0xa2, 0xff, 0xff, 0xa6, 0xdd, 0xff, 0xff,
  0x04, 0x00, 0x00, 0x00, 0x20, 0x01, 0x00, 0x00, 0xee, 0x0e, 0x81, 0xe7,
  0x25, 0x1c, 0x29, 0x06, 0x68, 0xcf, 0x3c, 0x0d, 0x7f, 0x2d, 0x16, 0x15,
  0x15, 0x08, 0x9b, 0x3e, 0xff, 0x9e, 0x7f, 0xb3, 0xee, 0xea, 0x04, 0x6b,
  0x3c, 0x90, 0x05, 0x7f, 0xf1, 0x30, 0x4a, 0x95, 0xb3, 0xfb, 0xd4, 0x7f,
  0x92, 0xd3, 0xfe, 0x3d, 0xeb, 0x1b, 0x34, 0x1a, 0x98, 0x3b, 0x81, 0x0a,
  0x44, 0x8b, 0xd5, 0x3e, 0x7f, 0xb0, 0x1a, 0x59, 0x9d, 0xc6, 0x5e, 0x7f,
  0xa4, 0xd8, 0xa4, 0xd4, 0xe0, 0xc1, 0x27, 0xfb, 0x3f, 0x81, 0x2f, 0x63,
  0x29, 0xbf, 0x3b, 0xb7, 0x06, 0x49, 0xf4, 0x01, 0x89, 0x4d, 0x0e, 0xfc,
  0x0b, 0x81, 0x50, 0xea, 0xea, 0xfc, 0x7f, 0x1f, 0xcf, 0x15, 0x0b, 0x81,
  0xfc, 0xc8, 0x9b, 0x47, 0xe2, 0x58, 0x8f, 0x1b, 0x09, 0xdc, 0x81, 0x30,
  0x61, 0x32, 0x03, 0x70, 0xef, 0x0d, 0xc8, 0x24, 0x81, 0x32, 0xf0, 0x29,
  0xdf, 0x1d, 0x40, 0x56, 0x07, 0x8a, 0x7f, 0x78, 0xa6, 0x0b, 0xe0, 0xe9,
  0x01, 0x81, 0x1f, 0x34, 0x9a, 0x60, 0x21, 0x31, 0x7f, 0x0b, 0x4c, 0xf6,
  0xbd, 0x57, 0x91, 0x75, 0x2b, 0xf9, 0x0a, 0xed, 0x72, 0x11, 0xc1, 0x7f,
  0xa9, 0x30, 0x7f, 0xf1, 0x21, 0x44, 0xf1, 0x27, 0xf9, 0xf6, 0xee, 0xc5,
  0xe5, 0x10, 0x71, 0x11, 0x11, 0xde, 0xb5, 0x81, 0x74, 0x8e, 0x3b, 0xe5,
  0x29, 0xb3, 0xd5, 0x02, 0x81, 0x44, 0x6d, 0xf7, 0xb5, 0x6a, 0xa8, 0x0a,
  0x7f, 0xda, 0x81, 0x3f, 0xff, 0x56, 0xc0, 0xd9, 0xfd, 0xd9, 0x4e, 0xf3,
  0xe3, 0x0b, 0x81, 0x03, 0x33, 0x2c, 0xc7, 0xf7, 0x48, 0x1b, 0x05, 0x7c,
  0xee, 0x59, 0x81, 0xe8, 0xd1, 0xca, 0xcd, 0xfd, 0x38, 0x18, 0x14, 0x7f,
  0x2e, 0x22, 0xef, 0x9a, 0x06, 0xfb, 0xcb, 0x81, 0x75, 0xb5, 0x6f, 0x10,
  0xcf, 0xd1, 0x81, 0x08, 0x34, 0xc9, 0x06, 0x3d, 0x81, 0xad, 0x2b, 0x6e,
  0x31, 0x35, 0x6d, 0x7d, 0xd4, 0xd5, 0x39, 0x8f, 0x15, 0x3a, 0x7f, 0x89,
  0xb1, 0x29, 0x1f, 0x7f, 0x2f, 0x45, 0x14, 0x2c, 0x8a, 0x7f, 0xcf, 0xe5,
  0x6b, 0xf1, 0x00, 0x00, 0x81, 0xf9, 0x7d, 0x51, 0xd2, 0xde, 0xff, 0xff,
  0x04, 0x00, 0x00, 0x00, 0x80, 0x00, 0x00, 0x00, 0x7a, 0xf7, 0xff, 0xff,
  0x97, 0xfa, 0xff, 0xff, 0x51, 0x04, 0x00, 0x00, 0xca, 0xeb, 0xff, 0xff,
  0xd8, 0x05, 0x00, 0x00, 0x28, 0xf8, 0xff, 0xff, 0x65, 0x09, 0x00, 0x00,
  0x10, 0x00, 0x00, 0x00, 0xba, 0xf9, 0xff, 0xff, 0x97, 0x06, 0x00, 0x00,
  0xcb, 0xf2, 0xff, 0xff, 0x45, 0xee, 0xff, 0xff, 0xae, 0xf1, 0xff, 0xff,
  0x3a, 0xf9, 0xff, 0xff, 0xfc, 0x0f, 0x00, 0x00, 0x00, 0x00, 0x00, 0x00,
  0xba, 0x11, 0x00, 0x00, 0xbe, 0xed, 0xff, 0xff, 0x22, 0x19, 0x00, 0x00,
  0x37, 0x0e, 0x00, 0x00, 0x61, 0xfa, 0xff, 0xff, 0x00, 0x00, 0x00, 0x00,
  0xcd, 0x18, 0x00, 0x00, 0x73, 0x14, 0x00, 0x00, 0x1f, 0x09, 0x00, 0x00,
  0x95, 0x02, 0x00, 0x00, 0x84, 0x06, 0x00, 0x00, 0x97, 0x08, 0x00, 0x00,
  0x9d, 0xf5, 0xff, 0xff, 0x68, 0x04, 0x00, 0x00, 0x0b, 0xd7, 0xff, 0xff,
  0x00, 0x00, 0x00, 0x00, 0x5e, 0xdf, 0xff, 0xff, 0x04, 0x00, 0x00, 0x00,
  0x00, 0x06, 0x00, 0x00, 0x29, 0xf9, 0xdb, 0x0a, 0x56, 0x40, 0x3b, 0xf7,
  0xe0, 0xca, 0xf3, 0x81, 0x1e, 0xff, 0x02, 0x37, 0xec, 0x31, 0xdb, 0xe3,
  0xec, 0x3d, 0xff, 0x37, 0x26, 0x03, 0x46, 0x3e, 0x21, 0x23, 0xe8, 0x17,
  0x24, 0x1b, 0xd7, 0xcb, 0xa7, 0xea, 0x3b, 0xb3, 0x22, 0x05, 0x12, 0x9b,
  0xdc, 0xd4, 0x0b, 0xfb, 0x0c, 0xee, 0x1b, 0xa0, 0x9a, 0xcc, 0xf4, 0x1e,
  0x1e, 0xe7, 0xe0, 0xd6, 0x09, 0x42, 0x43, 0xdd, 0xef, 0xf9, 0x52, 0x1f,
  0xdb, 0x2b, 0x18, 0xe9, 0xf1, 0xfe, 0x1e, 0x2c, 0x24, 0x04, 0x1e, 0x22,
  0x49, 0x3f, 0x06, 0xef, 0xc1, 0xca, 0xeb, 0xf1, 0xf2, 0xc6, 0x37, 0x0a,
  0xe1, 0xce, 0xeb, 0x3d, 0x06, 0xd2, 0xf5, 0x0b, 0xbc, 0xeb, 0x22, 0xe5,
  0xa9, 0x11, 0x3f, 0x0a, 0x1d, 0x12, 0x21, 0x1e, 0x1e, 0xa3, 0x2d, 0xeb,
  0xd8, 0x24, 0x9a, 0x30, 0xff, 0xee, 0xfc, 0x1e, 0xd7, 0xdf, 0xda, 0xef,
  0xe4, 0x0e, 0x17, 0xec, 0x2e, 0xf9, 0x17, 0xc9, 0x54, 0x29, 0xe9, 0xe5,
  0xf1, 0xee, 0x29, 0x15, 0xe2, 0xfb, 0xe9, 0x52, 0x2a, 0x07, 0xe0, 0x33,
  0x15, 0xd5, 0xf7, 0xe4, 0xe3, 0x02, 0xfb, 0xf8, 0xc5, 0x02, 0xdd, 0xee,
  0x32, 0xf8, 0xc5, 0xdb, 0x19, 0x1e, 0xc6, 0xe5, 0x2f, 0xa9, 0xcd, 0x07,
  0x99, 0x1e, 0xce, 0x38, 0x08, 0x15, 0x21, 0x81, 0xb0, 0xb7, 0xc0, 0xdf,
  0xe6, 0xef, 0xc5, 0x16, 0x06, 0xed, 0xdf, 0xef, 0x00, 0x12, 0xd9, 0xe8,
  0x17, 0xfb, 0xe2, 0x19, 0x1b, 0xf0, 0xd6, 0xf8, 0xef, 0x18, 0x81, 0x17,
  0x22, 0xe3, 0xde, 0xb2, 0x03, 0xdd, 0x20, 0xd4, 0x13, 0xd0, 0xea, 0x22,
  0x08, 0xf4, 0xfb, 0xe3, 0x07, 0x20, 0x02, 0xce, 0x22, 0xe7, 0x17, 0xd2,
  0xe9, 0xf7, 0x2a, 0x0c, 0x28, 0x18, 0x40, 0x07, 0x07, 0xe9, 0xdc, 0xdc,
  0x02, 0x2d, 0x29, 0x10, 0x28, 0xf3, 0x0e, 0x19, 0x24, 0xdc, 0xbb, 0xe6,
  0xe2, 0x1a, 0xf5, 0xef, 0x29, 0xe9, 0x33, 0xad, 0xe8, 0x05, 0xed, 0x24,
  0x29, 0xf2, 0x2d, 0xdf, 0xfb, 0x0f, 0x0a, 0xde, 0xfe, 0x0c, 0x3f, 0x03,
  0x09, 0xff, 0xf0, 0x06, 0xe7, 0x0f, 0x17, 0x0c, 0x0a, 0x02, 0xff, 0xf5,
  0x81, 0x0f, 0xe1, 0x02, 0x08, 0xec, 0xea, 0x0c, 0xfe, 0xea, 0xd5, 0x11,
  0xf4, 0xfa, 0xca, 0xd2, 0xe2, 0xed, 0x06, 0xe4, 0x05, 0xeb, 0xeb, 0x18,
  0xed, 0x04, 0xf4, 0xe9, 0x2a, 0x09, 0x11, 0xfb, 0x04, 0x07, 0xe2, 0x8c,
  0x09, 0xf2, 0xec, 0xed, 0x00, 0x0f, 0xf4, 0x10, 0x0b, 0x09, 0xf9, 0x1e,
  0x03, 0xf3, 0x03, 0x11, 0x08, 0x0a, 0xf5, 0x02, 0x16, 0x02, 0x01, 0xf3,
  0xf2, 0xf7, 0xed, 0xf4, 0x12, 0xe8, 0xf9, 0xe9, 0x0a, 0x05, 0x03, 0x12,
  0xfe, 0x10, 0x2b, 0xf5, 0x0d, 0xf9, 0x16, 0xf0, 0xdb, 0xf0, 0x13, 0x01,
  0x09, 0x06, 0xda, 0x0e, 0xee, 0x18, 0x1b, 0x1e, 0xe8, 0x1f, 0x19, 0xbd,
  0x04, 0x1d, 0x01, 0xef, 0xf6, 0x12, 0x19, 0xe5, 0xe8, 0xf7, 0x2c, 0xd6,
  0xe7, 0x0e, 0xdf, 0x0a, 0x1b, 0x09, 0x06, 0x26, 0xdd, 0x09, 0x05, 0x26,
  0x08, 0xff, 0xfd, 0x02, 0x4a, 0x14, 0xeb, 0xd9, 0x0a, 0x3e, 0xe7, 0xb3,
  0x01, 0xe1, 0x23, 0x1d, 0x2a, 0x15, 0x32, 0x16, 0x3e, 0x0e, 0x2a, 0xc6,
  0xfc, 0xf6, 0x03, 0xec, 0x2f, 0x1b, 0x0a, 0x25, 0x2b, 0xe2, 0xc6, 0xe4,
  0x14, 0xfb, 0x0c, 0xda, 0xf4, 0xc7, 0x06, 0xce, 0xe6, 0x25, 0x0a, 0x10,
  0xf4, 0xec, 0x7f, 0x04, 0x0e, 0x1c, 0xf4, 0xe5, 0xec, 0x18, 0x16, 0x08,
  0x16, 0x1d, 0xf0, 0x24, 0x8f, 0xca, 0x4a, 0xab, 0x45, 0xe6, 0xf5, 0x98,
  0x4e, 0x21, 0x37, 0x98, 0xf6, 0x47, 0xf4, 0xe4, 0x1d, 0x46, 0x8a, 0x3c,
  0x4f, 0xdd, 0xbe, 0x15, 0x1b, 0xb4, 0x90, 0xd2, 0x4c, 0xdc, 0xb4, 0x3d,
  0x5e, 0xd6, 0xad, 0xcd, 0x11, 0xe0, 0x9d, 0x12, 0x3d, 0x1a, 0xfc, 0x4c,
  0xd7, 0x08, 0x4b, 0x9e, 0xe7, 0x04, 0x41, 0x20, 0x28, 0xa6, 0xbc, 0xbf,
  0xc0, 0xa1, 0xb3, 0x05, 0xfc, 0x18, 0x39, 0xf3, 0xd7, 0xdb, 0x51, 0x09,
  0x40, 0x66, 0xed, 0xab, 0xbf, 0xc9, 0x0f, 0xc0, 0xa2, 0xe2, 0xc7, 0xae,
  0xab, 0x34, 0xec, 0x36, 0xbe, 0x4a, 0x9b, 0x9f, 0x57, 0x03, 0xfd, 0xa8,
  0x07, 0xe8, 0x81, 0x43, 0xe7, 0xf8, 0x2b, 0xe3, 0x38, 0x0e, 0x09, 0xf2,
  0xe8, 0xbc, 0xed, 0xf5, 0x21, 0xea, 0xdf, 0x09, 0x03, 0xfa, 0x10, 0x43,
  0xc2, 0x26, 0x2b, 0xf8, 0xfc, 0x10, 0xe5, 0xdb, 0x09, 0x18, 0xe9, 0xdf,
  0x11, 0xdb, 0xe7, 0xef, 0x1e, 0x14, 0x29, 0x1c, 0x04, 0xc1, 0x03, 0xa9,
  0x0f, 0x19, 0x13, 0xfa, 0x31, 0x2d, 0x04, 0x7f, 0xef, 0x27, 0xb4, 0xec,
  0x32, 0xef, 0x13, 0xf3, 0xdb, 0x03, 0x01, 0xe6, 0x1e, 0x48, 0xd3, 0x1b,
  0xf7, 0xd9, 0x04, 0xff, 0x23, 0xed, 0xe5, 0x30, 0x07, 0xed, 0x06, 0xd8,
  0x0f, 0x0c, 0xed, 0xe4, 0x18, 0xf4, 0xfb, 0x31, 0xdc, 0x3e, 0xe4, 0xe1,
  0x1d, 0xef, 0xef, 0x1a, 0x04, 0x29, 0x07, 0xf1, 0xe7, 0xfb, 0x15, 0xb7,
  0x1c, 0xe1, 0x28, 0x81, 0xfd, 0xcb, 0xea, 0xfb, 0xe0, 0x98, 0x50, 0xfd,
  0x14, 0x19, 0x28, 0xea, 0x1d, 0x0e, 0x1c, 0xee, 0x07, 0x01, 0xfe, 0x07,
  0xc8, 0xeb, 0xac, 0x05, 0xf5, 0x05, 0x15, 0x18, 0xd0, 0x13, 0xe3, 0xc9,
  0xfb, 0x09, 0xee, 0x21, 0xff, 0x14, 0x07, 0xed, 0xe3, 0xe0, 0xbf, 0x20,
  0x0f, 0xff, 0xed, 0x00, 0x09, 0xe5, 0xf7, 0x06, 0xe3, 0xcc, 0xec, 0xfc,
  0xe8, 0xe3, 0xde, 0xc7, 0xbb, 0xd4, 0x08, 0x0f, 0xdc, 0xfb, 0xd3, 0xec,
  0xf2, 0x0a, 0xb8, 0x0f, 0xff, 0x03, 0xe0, 0xb2, 0xec, 0xf7, 0xc4, 0xda,
  0xd8, 0xe7, 0xf0, 0x05, 0xe0, 0x15, 0xfb, 0xf7, 0x34, 0xf6, 0x8b, 0x30,
  0xf0, 0x02, 0xff, 0x0f, 0x25, 0xcb, 0xdc, 0x1a, 0xc1, 0x12, 0xb9, 0x13,
  0xfd, 0xde, 0x2b, 0x97, 0x1a, 0xc7, 0xbd, 0xbd, 0xf0, 0xed, 0xcb, 0xf3,
  0xed, 0xe5, 0xeb, 0xce, 0xdf, 0x1a, 0x36, 0x6d, 0x5f, 0xdc, 0x02, 0xd1,
  0x16, 0x23, 0xda, 0xdd, 0x0f, 0x1a, 0x05, 0x0a, 0x20, 0xd5, 0xe4, 0x1d,
  0x04, 0xe1, 0x12, 0xf1, 0x07, 0x01, 0x0b, 0x25, 0x07, 0x19, 0x59, 0xfd,
  0x39, 0xf8, 0x04, 0x0b, 0x26, 0x6a, 0xf0, 0x7f, 0x12, 0x2f, 0x00, 0x04,
  0x10, 0xb9, 0xd2, 0xf8, 0xe3, 0xcb, 0x10, 0x5e, 0x56, 0x27, 0x30, 0xf3,
  0xd5, 0x3b, 0x5d, 0xf8, 0x48, 0x62, 0x1c, 0x9e, 0x46, 0xe1, 0xf5, 0x9e,
  0xd9, 0xb9, 0xd3, 0xba, 0x3a, 0x4a, 0xde, 0x8e, 0xf9, 0xd0, 0xa1, 0x8a,
  0x45, 0xa4, 0x55, 0x2f, 0x89, 0xab, 0xef, 0x81, 0xac, 0xd8, 0xe2, 0x2b,
  0xec, 0x22, 0xde, 0xb4, 0x35, 0xeb, 0xfc, 0x87, 0x50, 0x72, 0x85, 0x69,
  0xb1, 0x95, 0xbf, 0x04, 0xf8, 0x0e, 0xd0, 0x16, 0x00, 0x46, 0x9e, 0x4a,
  0x20, 0xb0, 0x2e, 0x9a, 0x18, 0x13, 0xfa, 0x6c, 0xe9, 0x2d, 0x16, 0x1e,
  0x2d, 0xb3, 0xa5, 0x62, 0xe9, 0x4c, 0x32, 0xf9, 0xd5, 0x61, 0xb1, 0xf9,
  0xb7, 0xf6, 0xa6, 0xa3, 0xf2, 0xaa, 0x40, 0x8c, 0xa9, 0x32, 0xf2, 0xd4,
  0x73, 0x22, 0xeb, 0xdd, 0xf6, 0x1f, 0xd8, 0x05, 0x0a, 0xf8, 0xff, 0x27,
  0xee, 0x12, 0x02, 0xab, 0xf2, 0xff, 0x32, 0x37, 0x23, 0x21, 0x53, 0xa2,
  0x7f, 0x09, 0xeb, 0x9b, 0x24, 0x10, 0x1d, 0x37, 0x14, 0x0b, 0xe5, 0x1a,
  0xe3, 0xca, 0x20, 0x2b, 0x9d, 0x1b, 0x1a, 0xde, 0xf8, 0xec, 0xd2, 0x4e,
  0xfc, 0x5d, 0x46, 0xd0, 0x41, 0x02, 0xb3, 0x7d, 0xc7, 0x0b, 0xed, 0x26,
  0xdd, 0x3b, 0xf9, 0x4c, 0xdc, 0x0c, 0xe8, 0x1b, 0xf1, 0x2f, 0x51, 0x07,
  0xe7, 0xdd, 0x27, 0x42, 0xf3, 0xff, 0x3d, 0xfc, 0x21, 0xb9, 0xee, 0xcc,
  0x08, 0xc6, 0x12, 0x31, 0xf5, 0x01, 0x23, 0xfd, 0x1b, 0x3d, 0xe7, 0x01,
  0xe3, 0xfa, 0x0e, 0xe8, 0xd5, 0x10, 0x22, 0xf1, 0xa2, 0x03, 0x1a, 0xf4,
  0xf5, 0xe1, 0xdb, 0x0f, 0xe5, 0x32, 0x17, 0xd3, 0xfb, 0xec, 0xe1, 0x0b,
  0xd8, 0x11, 0x2f, 0x4f, 0xfa, 0x2d, 0xf5, 0x03, 0xec, 0x0d, 0x05, 0xf0,
  0xf4, 0x2a, 0xe5, 0x1a, 0x65, 0x11, 0x1a, 0xf3, 0xe3, 0xf9, 0xfe, 0x00,
  0x18, 0xcf, 0x2e, 0x05, 0xdb, 0xe5, 0x2c, 0xfb, 0x7f, 0xce, 0x32, 0x16,
  0xdb, 0x27, 0xfc, 0x19, 0xd8, 0x02, 0x27, 0x23, 0xea, 0xec, 0xe3, 0xfe,
  0xde, 0xe2, 0x0f, 0xd4, 0x30, 0xdc, 0xff, 0xc5, 0xf1, 0xf2, 0x0a, 0x33,
  0x1b, 0x12, 0xda, 0xde, 0xcf, 0x07, 0x05, 0x21, 0xfd, 0xfa, 0xf5, 0xe5,
  0x21, 0x28, 0xf4, 0xcb, 0x21, 0x20, 0x15, 0x40, 0x44, 0x2b, 0xf3, 0x37,
  0x04, 0xa7, 0x22, 0x0b, 0x32, 0x49, 0xc5, 0x58, 0x15, 0xe0, 0xd0, 0x34,
  0xf9, 0xe2, 0xe1, 0x14, 0xa8, 0xa1, 0x94, 0x2b, 0x31, 0x16, 0x4e, 0xd1,
  0x34, 0xfc, 0x9b, 0x0d, 0x42, 0x33, 0x13, 0xbd, 0x16, 0x14, 0xe9, 0xd0,
  0x82, 0x06, 0xd7, 0xf3, 0x5e, 0xb8, 0xe7, 0x6e, 0xcb, 0xbc, 0xe2, 0x93,
  0x35, 0x5c, 0x40, 0xa0, 0x34, 0x23, 0x07, 0xac, 0xb8, 0x00, 0xbb, 0x01,
  0xac, 0x48, 0x3b, 0xa6, 0xe6, 0x81, 0xfb, 0xbe, 0xd8, 0x06, 0x4e, 0x18,
  0x66, 0xdc, 0x5c, 0x3a, 0x8b, 0xe0, 0x16, 0x0c, 0xd8, 0x2e, 0xfd, 0x12,
  0xa6, 0x1c, 0xb4, 0xd8, 0x03, 0xaa, 0xf1, 0xfc, 0x0c, 0xf7, 0xcf, 0x48,
  0x9d, 0x33, 0x1f, 0xd5, 0xed, 0xd9, 0x10, 0xfb, 0x25, 0xf7, 0xe9, 0x17,
  0x2c, 0x09, 0x8f, 0xaa, 0x0b, 0x8f, 0xc5, 0x13, 0x81, 0x19, 0xf0, 0x0d,
  0x18, 0xf8, 0x0c, 0xf9, 0xc6, 0x17, 0xe5, 0xfb, 0xd2, 0x05, 0xde, 0x53,
  0xfe, 0xf9, 0x03, 0x19, 0x0b, 0xa4, 0xf8, 0xfe, 0x07, 0x1d, 0x33, 0x1b,
  0xfd, 0x1f, 0x29, 0x13, 0x06, 0x18, 0xe9, 0xe4, 0x2b, 0xfc, 0x40, 0xfd,
  0x08, 0x05, 0xf6, 0x3e, 0xba, 0x3d, 0x0e, 0x35, 0x01, 0x06, 0x16, 0x1c,
  0x13, 0xf5, 0x41, 0x0d, 0x22, 0xee, 0x20, 0xdb, 0x18, 0xe1, 0x39, 0x0f,
  0x23, 0x2b, 0x11, 0xe0, 0xba, 0xf2, 0x14, 0x12, 0xd2, 0xe1, 0xc8, 0xdd,
  0xd1, 0x09, 0xe1, 0xd2, 0xdb, 0xe0, 0xbd, 0x13, 0xd8, 0xca, 0x81, 0x1a,
  0x21, 0x0f, 0xea, 0xe4, 0xe7, 0xdb, 0xf3, 0xf7, 0xc4, 0xec, 0xd2, 0xda,
  0xe4, 0x09, 0x0e, 0xea, 0x26, 0x04, 0x12, 0x0c, 0x05, 0x22, 0x02, 0x06,
  0x03, 0x0e, 0xf8, 0xfd, 0x15, 0xcd, 0xe7, 0xf1, 0xf5, 0x17, 0x05, 0x1f,
  0xdc, 0x07, 0xc0, 0xe5, 0xf3, 0xfb, 0x11, 0x29, 0x00, 0x1d, 0x1c, 0xfb,
  0xf2, 0x15, 0x1e, 0xfd, 0x13, 0x19, 0xf2, 0xc0, 0x23, 0xf3, 0xd4, 0xed,
  0xd3, 0x20, 0x06, 0x15, 0xed, 0x19, 0x0c, 0xf3, 0x24, 0x24, 0x14, 0xde,
  0x26, 0xf9, 0x2f, 0xe3, 0x05, 0x15, 0x87, 0x3b, 0x34, 0xe2, 0xdf, 0xf8,
  0x15, 0xed, 0x18, 0xea, 0xc2, 0xfb, 0x55, 0xd2, 0x5a, 0xd4, 0x82, 0x0f,
  0x13, 0xc0, 0xee, 0x7f, 0x12, 0x2b, 0xc9, 0xf1, 0x2c, 0x2a, 0x48, 0xf4,
  0x10, 0xc8, 0xd0, 0xd1, 0xa1, 0xd2, 0x6a, 0x13, 0x16, 0xcd, 0xce, 0x0f,
  0xe5, 0x4b, 0xca, 0x20, 0x56, 0x29, 0xae, 0x04, 0x41, 0xfb, 0x44, 0xd2,
  0x19, 0xf4, 0xe9, 0x40, 0x45, 0xe4, 0xec, 0x03, 0x11, 0xdc, 0x0f, 0xe7,
  0x35, 0xfd, 0xd6, 0x0d, 0x0f, 0xe7, 0xeb, 0xe0, 0x20, 0xe5, 0x1b, 0xc5,
  0x02, 0x90, 0x05, 0x25, 0xe1, 0x18, 0x05, 0x18, 0x22, 0xff, 0xc6, 0x20,
  0x1f, 0xe0, 0xe0, 0xc4, 0x6a, 0xe5, 0xff, 0xff, 0x04, 0x00, 0x00, 0x00,
  0x40, 0x00, 0x00, 0x00, 0x0b, 0x09, 0x00, 0x00, 0x50, 0x06, 0x00, 0x00,
  0x71, 0x09, 0x00, 0x00, 0xab, 0xfe, 0xff, 0xff, 0xec, 0x04, 0x00, 0x00,
  0xd5, 0xf3, 0xff, 0xff, 0xf6, 0x03, 0x00, 0x00, 0xf5, 0x01, 0x00, 0x00,
  0xfb, 0x04, 0x00, 0x00, 0x3e, 0xfc, 0xff, 0xff, 0xe7, 0x09, 0x00, 0x00,
  0x38, 0x08, 0x00, 0x00, 0xad, 0x0c, 0x00, 0x00, 0x8b, 0xfe, 0xff, 0xff,
  0x6f, 0xfc, 0xff, 0xff, 0xfc, 0x0f, 0x00, 0x00, 0xb6, 0xe5, 0xff, 0xff,
  0x04, 0x00, 0x00, 0x00, 0x80, 0x01, 0x00, 0x00, 0xc0, 0xcd, 0x7f, 0x2b,
  0x3a, 0x44, 0xf4, 0x4f, 0x2c, 0xda, 0xa5, 0xc7, 0x27, 0xd7, 0x15, 0x2f,
  0xbc, 0x77, 0x70, 0x36, 0xc7, 0x38, 0x84, 0xd2, 0x10, 0xb7, 0x2b, 0x00,
  0xd1, 0x42, 0x0c, 0x1e, 0x19, 0x99, 0xc0, 0xeb, 0x69, 0x11, 0xed, 0xde,
  0x50, 0x54, 0xd6, 0x9d, 0x42, 0x23, 0xe0, 0x69, 0xce, 0xdd, 0x3c, 0x00,
  0x21, 0x28, 0xee, 0x26, 0xed, 0x25, 0x13, 0x20, 0x02, 0x12, 0x03, 0x07,
  0x02, 0x48, 0xcb, 0x20, 0xf7, 0xf7, 0xc1, 0x60, 0x45, 0xfd, 0xed, 0xf9,
  0x36, 0x6c, 0x2a, 0xfa, 0x46, 0xc6, 0x39, 0x28, 0x39, 0x30, 0x81, 0x51,
  0xae, 0x1d, 0x18, 0x2c, 0x19, 0x2b, 0xff, 0xf5, 0x30, 0xd3, 0xe2, 0x19,
  0xe6, 0x22, 0x0a, 0x23, 0x30, 0x3a, 0x39, 0x24, 0x22, 0x26, 0x08, 0x3e,
  0xff, 0xc4, 0x13, 0xc2, 0xd0, 0xe1, 0x32, 0xd9, 0xc4, 0xe1, 0x23, 0x10,
  0x3e, 0xf1, 0xba, 0x0f, 0x45, 0x21, 0xeb, 0x44, 0x00, 0x16, 0xda, 0xd0,
  0x0e, 0xe3, 0xfb, 0x31, 0xd4, 0x81, 0x28, 0x39, 0xfe, 0x94, 0x2c, 0x44,
  0x11, 0x26, 0x17, 0xc8, 0xd6, 0x4f, 0x13, 0x51, 0x25, 0xf2, 0x2c, 0xd7,
  0xe9, 0x13, 0x7f, 0x83, 0x18, 0xaf, 0x38, 0x27, 0x8d, 0xff, 0xbf, 0xc6,
  0xf8, 0xbc, 0xee, 0x29, 0x55, 0x91, 0xbd, 0x15, 0x4d, 0x5e, 0xd3, 0x2a,
  0xb2, 0xe7, 0x61, 0x0c, 0x4a, 0xbc, 0x44, 0xc6, 0x29, 0x65, 0x19, 0xfe,
  0x32, 0xe9, 0x08, 0x21, 0x53, 0xe9, 0xec, 0x4e, 0x0f, 0xc9, 0xfc, 0x27,
  0x53, 0x0f, 0x12, 0x61, 0x01, 0xf3, 0x27, 0xb3, 0x9c, 0xee, 0x81, 0xf8,
  0x45, 0x35, 0xf5, 0x23, 0xd9, 0x47, 0xb4, 0x24, 0x1c, 0xc6, 0xf9, 0x43,
  0xf9, 0xcf, 0xab, 0x34, 0x39, 0xa2, 0xea, 0xf2, 0xdb, 0xa5, 0xf4, 0xb4,
  0x6d, 0xea, 0x26, 0x65, 0x5a, 0x17, 0x26, 0xec, 0x2a, 0xb9, 0x18, 0xe3,
  0x24, 0xfe, 0x1b, 0x1d, 0x1c, 0x2c, 0x22, 0x81, 0x5f, 0xbd, 0xef, 0x27,
  0x00, 0xfc, 0x04, 0xb2, 0xca, 0x1c, 0x43, 0x1a, 0x27, 0x00, 0xf0, 0x10,
  0xa6, 0xe0, 0xb4, 0x46, 0xea, 0x9f, 0x63, 0xff, 0xe1, 0xa5, 0x32, 0xd6,
  0xb8, 0x0d, 0x4f, 0xc4, 0x2f, 0xcf, 0x1d, 0xbf, 0xbe, 0x02, 0x09, 0xe2,
  0xf1, 0xa8, 0x43, 0xfc, 0xdf, 0xe6, 0xed, 0x0b, 0x29, 0x2c, 0xec, 0x81,
  0xe2, 0xf5, 0xba, 0xba, 0x2d, 0xa5, 0x59, 0x67, 0xa1, 0x5d, 0xd5, 0x3a,
  0xe9, 0xaf, 0xa1, 0xe3, 0xcc, 0x9b, 0x54, 0x9f, 0x55, 0xda, 0xe1, 0x26,
  0x2f, 0x3a, 0xcc, 0xa5, 0x99, 0xd6, 0x26, 0xb3, 0xfb, 0xd8, 0x7b, 0xf5,
  0x48, 0x46, 0x22, 0x4f, 0xff, 0xb6, 0x0f, 0x6b, 0x40, 0xe0, 0x1f, 0x32,
  0x0a, 0x81, 0x13, 0x30, 0xb4, 0x23, 0x16, 0x09, 0x04, 0x1e, 0x5c, 0xdd,
  0x36, 0x52, 0x55, 0xec, 0xbf, 0xb1, 0xbd, 0xc3, 0x42, 0xe7, 0xff, 0xff,
  0x04, 0x00, 0x00, 0x00, 0x20, 0x00, 0x00, 0x00, 0x92, 0xfd, 0xff, 0xff,
  0x73, 0x08, 0x00, 0x00, 0x12, 0x07, 0x00, 0x00, 0xf8, 0x0a, 0x00, 0x00,
  0x45, 0x05, 0x00, 0x00, 0x0f, 0x0e, 0x00, 0x00, 0x41, 0xf5, 0xff, 0xff,
  0xe8, 0x09, 0x00, 0x00, 0x6e, 0xe7, 0xff, 0xff, 0x04, 0x00, 0x00, 0x00,
  0x80, 0x06, 0x00, 0x00, 0x5c, 0x34, 0x44, 0x0b, 0x86, 0x9b, 0xc2, 0x54,
  0x58, 0x46, 0xfe, 0x9d, 0x00, 0x35, 0x3c, 0xca, 0x0c, 0x0d, 0xbf, 0xa2,
  0xfa, 0xd4, 0x1f, 0xea, 0x29, 0xfd, 0x2f, 0x95, 0x1f, 0x20, 0xcf, 0xe1,
  0x3d, 0x10, 0xbf, 0x89, 0x22, 0xa0, 0xef, 0x41, 0xd4, 0xb8, 0x15, 0xd5,
  0xe6, 0x90, 0x9b, 0xc2, 0xd7, 0x42, 0x98, 0xd7, 0x81, 0x96, 0xb8, 0x4a,
  0x3b, 0xd1, 0x3f, 0x8c, 0x92, 0x5a, 0xfa, 0x27, 0xd7, 0xf4, 0xc3, 0x19,
  0xd1, 0x19, 0xe4, 0xd4, 0x43, 0x27, 0x86, 0x2a, 0x58, 0x36, 0x4e, 0x92,
  0xcf, 0xea, 0xde, 0xf7, 0xd1, 0xa7, 0x0d, 0xa4, 0x35, 0xf3, 0x1a, 0xd9,
  0xb1, 0xec, 0xbc, 0xc0, 0x37, 0x9e, 0x53, 0xef, 0x21, 0x4a, 0xf3, 0xc8,
  0xf4, 0x2e, 0xe9, 0xff, 0xf5, 0xe1, 0x32, 0x2c, 0x0e, 0xe3, 0xfb, 0x02,
  0x07, 0x15, 0x45, 0xf6, 0xd1, 0x38, 0x0b, 0x05, 0xdf, 0x00, 0xed, 0x34,
  0x4a, 0xe0, 0x37, 0x10, 0x36, 0xe2, 0xd1, 0x0d, 0xd6, 0x15, 0x54, 0xd6,
  0x29, 0x04, 0x31, 0xf1, 0xe0, 0x0c, 0x4e, 0x1c, 0x40, 0x15, 0xde, 0x08,
  0xda, 0xd6, 0xfd, 0x22, 0x45, 0x81, 0xba, 0xfe, 0x9b, 0xe4, 0x09, 0xd9,
  0x6b, 0x8c, 0x34, 0xde, 0xd4, 0x1d, 0x6f, 0x2e, 0x56, 0xb0, 0x1c, 0x2b,
  0xba, 0xcb, 0xfa, 0x22, 0xfb, 0xab, 0x21, 0xf2, 0x2b, 0x2e, 0x01, 0xdc,
  0x46, 0xa3, 0x27, 0x11, 0x2d, 0xbd, 0x55, 0x4b, 0xe6, 0xc7, 0x3f, 0xe5,
  0xe3, 0xff, 0x15, 0x45, 0x12, 0xf6, 0xc7, 0x38, 0xe4, 0x3a, 0xec, 0xf8,
  0xec, 0xfd, 0xdc, 0x24, 0x0b, 0x1e, 0x36, 0x0d, 0xa7, 0xaf, 0x11, 0xe0,
  0x78, 0x21, 0x19, 0x48, 0xdd, 0xc5, 0x38, 0x1c, 0xfe, 0xf5, 0x45, 0x1a,
  0x9e, 0x12, 0xf3, 0x44, 0xc7, 0x3b, 0x57, 0xf7, 0xcd, 0xdf, 0x05, 0x31,
  0x14, 0x09, 0x45, 0x34, 0xe9, 0xf0, 0xc4, 0x19, 0x81, 0x15, 0xed, 0x34,
  0xce, 0xe3, 0xe5, 0x2f, 0x48, 0x2a, 0x0a, 0x3d, 0xda, 0xc8, 0x10, 0x2b,
  0x05, 0x3a, 0x48, 0x27, 0xfd, 0xe0, 0xda, 0x2b, 0xc2, 0x16, 0xe1, 0x1e,
  0xe4, 0xa6, 0xca, 0xee, 0x09, 0x21, 0xfc, 0xe4, 0xac, 0xcb, 0x09, 0x26,
  0xe1, 0x8b, 0xe4, 0x1e, 0x05, 0x1c, 0xd8, 0x1a, 0x44, 0x4d, 0xf7, 0x22,
  0xd5, 0xfb, 0xfe, 0x5a, 0xf8, 0xbc, 0xe2, 0xf4, 0x11, 0xd4, 0x57, 0xf8,
  0x6b, 0x4f, 0x18, 0x93, 0x87, 0xe1, 0xb1, 0xba, 0x1c, 0x07, 0xc9, 0x97,
  0x5d, 0x0e, 0x5b, 0x38, 0x2b, 0xb4, 0x18, 0x94, 0x12, 0x2c, 0xdc, 0x02,
  0x09, 0x49, 0xd0, 0x2f, 0x51, 0x09, 0xc7, 0x8f, 0x2d, 0x48, 0xc8, 0xa0,
  0xf2, 0x28, 0xb3, 0xe3, 0xf6, 0x81, 0x40, 0x26, 0x8c, 0xd6, 0x1f, 0x5c,
  0xe6, 0x5e, 0xa7, 0x38, 0xdd, 0x21, 0xd3, 0x45, 0xae, 0x24, 0x22, 0xfc,
  0xb7, 0xd5, 0x01, 0xb9, 0x21, 0xc9, 0xc3, 0xc7, 0x9d, 0x1b, 0x95, 0x45,
  0xee, 0x04, 0x88, 0xfb, 0xd9, 0x8b, 0x06, 0x05, 0xe2, 0x87, 0xde, 0xe4,
  0x92, 0x21, 0xb3, 0x49, 0x42, 0x52, 0x57, 0x1c, 0x3d, 0x04, 0xd1, 0x81,
  0xee, 0x00, 0xde, 0xf6, 0x00, 0x67, 0xe1, 0x2f, 0xdf, 0xc1, 0xf8, 0xf4,
  0x2b, 0x56, 0x17, 0x3c, 0x02, 0x9e, 0xf9, 0xe6, 0x02, 0xdb, 0xe3, 0x2e,
  0x3b, 0xa8, 0xfc, 0xfb, 0x34, 0x16, 0xdf, 0x1f, 0x7f, 0xab, 0x09, 0xcd,
  0x10, 0x19, 0xcf, 0x16, 0x00, 0xab, 0xe4, 0xf6, 0x1f, 0x2a, 0xd1, 0x0b,
  0x5f, 0xb4, 0x39, 0x40, 0xcb, 0xea, 0x1f, 0x0e, 0x12, 0xed, 0x33, 0x2a,
  0xf4, 0xfa, 0x1a, 0xd8, 0xe0, 0x09, 0x04, 0x30, 0xab, 0x0a, 0x12, 0x0d,
  0x20, 0xe1, 0xf9, 0x0b, 0xce, 0x19, 0x1f, 0x37, 0xe0, 0x20, 0x29, 0xe2,
  0xe3, 0xfa, 0x1a, 0xe2, 0x0d, 0x37, 0x1b, 0x34, 0x34, 0x2e, 0xf7, 0x1d,
  0x16, 0xa9, 0x05, 0x04, 0x19, 0xff, 0xd9, 0x0b, 0x23, 0x10, 0xf2, 0x04,
  0xf5, 0x9f, 0xf0, 0x2e, 0x18, 0xf3, 0x27, 0x2f, 0x13, 0xe0, 0xe1, 0x0e,
  0x28, 0xe8, 0x1b, 0x1c, 0x14, 0x15, 0xed, 0x10, 0xff, 0x00, 0x1a, 0x14,
  0x13, 0x19, 0xfa, 0x22, 0x10, 0x04, 0x17, 0x19, 0x37, 0x14, 0x02, 0x1f,
  0x12, 0x12, 0x0d, 0x0e, 0x23, 0x23, 0x26, 0x23, 0x35, 0xef, 0x23, 0x12,
  0x18, 0x18, 0x13, 0x18, 0x03, 0x08, 0x09, 0xe8, 0xe5, 0x10, 0x0f, 0x1c,
  0x49, 0xda, 0x08, 0x05, 0xec, 0x26, 0xf7, 0x08, 0x1b, 0xb4, 0xf7, 0x1f,
  0xf1, 0x55, 0x0b, 0x0b, 0x15, 0xbd, 0x10, 0xdf, 0xd1, 0xd7, 0xf3, 0xfa,
  0xe6, 0x7f, 0xf6, 0x25, 0xee, 0x38, 0xe9, 0xec, 0x21, 0x21, 0x18, 0xe9,
  0xed, 0x09, 0xdf, 0xe8, 0x2e, 0x0f, 0x24, 0x28, 0x12, 0x3a, 0xe1, 0x0f,
  0x04, 0xfc, 0xd9, 0xfa, 0xf1, 0xe9, 0xd6, 0xf4, 0x05, 0x0f, 0x13, 0x1b,
  0xea, 0x21, 0xfd, 0x18, 0x09, 0xee, 0x22, 0x3c, 0x27, 0x5a, 0x3c, 0x04,
  0x38, 0xf6, 0xc7, 0x1f, 0x12, 0x29, 0x31, 0xde, 0xf2, 0x0f, 0xd0, 0x0b,
  0x14, 0x4d, 0xdc, 0xe2, 0x49, 0x07, 0x25, 0x33, 0x49, 0x21, 0x01, 0xd9,
  0xb1, 0x7a, 0xf4, 0xfb, 0xfd, 0x3a, 0x36, 0x16, 0x95, 0x13, 0xf9, 0xf7,
  0xf0, 0x0c, 0xd5, 0x2b, 0x2f, 0x25, 0x23, 0x2c, 0xcf, 0x00, 0x03, 0x2d,
  0xe8, 0xf7, 0x0f, 0xf7, 0x05, 0x7f, 0xdc, 0x06, 0xf7, 0xbe, 0x2e, 0x33,
  0xf9, 0xe9, 0x2d, 0x46, 0x40, 0xfc, 0xfe, 0xe4, 0x37, 0xf1, 0x07, 0x1c,
  0xdf, 0xba, 0x35, 0x9f, 0xfa, 0x29, 0x28, 0x56, 0x60, 0x94, 0x66, 0x0c,
  0xf8, 0x1b, 0x94, 0x66, 0xee, 0xed, 0xcd, 0xe7, 0x35, 0x3c, 0x39, 0x32,
  0x91, 0x9f, 0x08, 0x4c, 0xcd, 0x38, 0x6d, 0x63, 0x72, 0x0c, 0x8f, 0x50,
  0x8b, 0x46, 0x08, 0x1e, 0x38, 0xde, 0x16, 0xdc, 0xb4, 0x99, 0x73, 0xf7,
  0x10, 0xee, 0x8b, 0x5a, 0x81, 0x58, 0x60, 0x01, 0x3f, 0xed, 0x4e, 0x18,
  0x86, 0xab, 0xb8, 0x93, 0x08, 0xf2, 0x8b, 0xb4, 0x5b, 0xd8, 0x1a, 0xf6,
  0x08, 0xa2, 0xc0, 0x1b, 0x2d, 0x22, 0xdd, 0x6a, 0xd7, 0xfd, 0x64, 0x15,
  0xae, 0xcf, 0xe0, 0xa2, 0xa9, 0xc3, 0xaf, 0x94, 0xa8, 0x4a, 0xe7, 0x28,
  0x26, 0x65, 0x14, 0xca, 0x88, 0x37, 0x9c, 0x3b, 0xbd, 0x2b, 0x0e, 0x0d,
  0xf3, 0x7f, 0x0f, 0x07, 0xee, 0x00, 0x36, 0x20, 0x00, 0x36, 0xf4, 0x0b,
  0x06, 0xf3, 0x2b, 0x2d, 0xd7, 0xd2, 0xe2, 0x39, 0x04, 0xfe, 0xc6, 0x0b,
  0xf3, 0xbd, 0xe9, 0x28, 0x2c, 0xc1, 0xff, 0x37, 0xe3, 0x0a, 0x2f, 0x43,
  0xce, 0xb8, 0x1e, 0x0b, 0xf2, 0x18, 0xfc, 0x0d, 0x67, 0xb1, 0xd4, 0xfb,
  0x56, 0x0c, 0xc4, 0xde, 0x29, 0xaf, 0x26, 0x0a, 0x38, 0x42, 0x0d, 0xe9,
  0xd5, 0x30, 0x24, 0xfd, 0x5f, 0x2b, 0x2a, 0x0f, 0xd9, 0x17, 0xf3, 0x24,
  0x09, 0x42, 0xd1, 0xcd, 0xd5, 0x26, 0x38, 0x33, 0xf7, 0xfa, 0x10, 0x3e,
  0x40, 0x0a, 0xc7, 0xe5, 0xe5, 0xfd, 0x2d, 0x0a, 0x9e, 0x16, 0xd0, 0xd6,
  0xc5, 0x43, 0x1a, 0xe6, 0xe6, 0x06, 0xcb, 0x5b, 0xea, 0x15, 0x37, 0xfe,
  0xeb, 0x04, 0x14, 0x44, 0xb1, 0x01, 0xd3, 0x18, 0xdf, 0x05, 0x04, 0x0d,
  0xe3, 0xe4, 0xdf, 0x2a, 0x42, 0xf8, 0x0f, 0x29, 0x81, 0x24, 0x27, 0x50,
  0x02, 0x1c, 0xce, 0xd6, 0xc6, 0xe2, 0xff, 0x2e, 0xb3, 0xff, 0xcc, 0x15,
  0xd2, 0xf7, 0x10, 0x09, 0x8e, 0x43, 0x0b, 0x23, 0x01, 0x07, 0xf5, 0x39,
  0x04, 0xfa, 0x11, 0xe8, 0x0a, 0x2c, 0xe3, 0x24, 0x6a, 0xf7, 0x23, 0xbc,
  0x50, 0xf5, 0xc3, 0x46, 0xb4, 0xc2, 0x33, 0xef, 0x35, 0xfc, 0x37, 0xe9,
  0x52, 0xd5, 0x3b, 0xf1, 0x44, 0x2c, 0xd1, 0x34, 0xc6, 0x43, 0x3c, 0x22,
  0x1f, 0xfa, 0xd0, 0xeb, 0x2d, 0xb6, 0xe6, 0xe1, 0x41, 0x91, 0xd5, 0xb3,
  0x10, 0xaa, 0x50, 0xf5, 0xab, 0x8e, 0xd9, 0x78, 0x36, 0x97, 0x8c, 0x75,
  0x8f, 0x1c, 0x9a, 0xd1, 0x45, 0xc4, 0xbd, 0x85, 0xb9, 0x21, 0x88, 0x6c,
  0xcc, 0x4d, 0x9e, 0x12, 0xac, 0xa1, 0x00, 0xae, 0x0e, 0x16, 0xd4, 0x81,
  0x6f, 0xca, 0x9c, 0xfd, 0xe5, 0x00, 0x12, 0xbb, 0x3d, 0x9d, 0x40, 0xdc,
  0x6d, 0xed, 0x9d, 0x81, 0x66, 0xab, 0x75, 0xb5, 0x8a, 0x95, 0x68, 0x93,
  0x23, 0x00, 0xa9, 0x25, 0xe1, 0x8a, 0xec, 0x3e, 0x88, 0xdb, 0x0f, 0x44,
  0xe3, 0xdb, 0x32, 0xf9, 0xdf, 0xb4, 0x4f, 0x4a, 0x9c, 0x1c, 0xad, 0xa4,
  0xc9, 0xf0, 0x6a, 0x73, 0x65, 0x8a, 0xb0, 0x95, 0xfa, 0x34, 0x8a, 0xac,
  0x8c, 0x1c, 0xea, 0x09, 0x89, 0x3d, 0x7a, 0xaf, 0xcc, 0xe5, 0x7f, 0x2c,
  0x45, 0x74, 0xe4, 0x43, 0x89, 0x24, 0x1c, 0x09, 0x12, 0x5a, 0x33, 0xe1,
  0x13, 0xed, 0xf9, 0x31, 0x3f, 0xe0, 0x23, 0x08, 0x31, 0xf3, 0x20, 0x11,
  0xb8, 0xce, 0xef, 0x41, 0xa7, 0xfc, 0xee, 0x2c, 0x9f, 0xd3, 0x0f, 0x12,
  0x6a, 0x56, 0xf6, 0x00, 0x44, 0x52, 0xe5, 0x0a, 0x28, 0x27, 0xc0, 0xc3,
  0x3a, 0xc1, 0x2f, 0xeb, 0x63, 0x32, 0xc9, 0x2c, 0xcf, 0xc2, 0xee, 0x06,
  0x3b, 0x5c, 0xf9, 0xd9, 0x31, 0x3e, 0x07, 0x29, 0x08, 0xb1, 0x57, 0xe7,
  0x3b, 0xc9, 0xca, 0x0c, 0x04, 0x94, 0xdd, 0xf4, 0xad, 0xcf, 0x17, 0xeb,
  0x36, 0x0a, 0xe0, 0xfc, 0x2f, 0x44, 0xe1, 0xf2, 0xf1, 0xd7, 0x2b, 0xda,
  0xbb, 0x18, 0x18, 0x15, 0xd3, 0x1e, 0x61, 0x13, 0xe1, 0x20, 0xf2, 0xdf,
  0xc7, 0xd5, 0x30, 0x03, 0x34, 0xde, 0xba, 0xd4, 0x5a, 0x12, 0x3d, 0xc8,
  0xe6, 0xaf, 0xf6, 0xdc, 0x08, 0xd8, 0x64, 0xed, 0x2d, 0xcf, 0x19, 0xd8,
  0xf2, 0x28, 0xf2, 0xb9, 0x08, 0x95, 0x45, 0xe2, 0xb1, 0x09, 0x2d, 0xef,
  0xba, 0xa0, 0xd9, 0xce, 0xa1, 0x12, 0x33, 0x48, 0x3f, 0xc7, 0xf1, 0x17,
  0xe5, 0x2e, 0x1e, 0x3f, 0xd6, 0xda, 0xc6, 0x13, 0xf1, 0xfd, 0xe4, 0xe7,
  0x23, 0xce, 0xed, 0x44, 0xb4, 0xe8, 0x4b, 0xf0, 0x42, 0x0a, 0xc4, 0x24,
  0x27, 0xba, 0x31, 0x38, 0x1f, 0x7f, 0x2e, 0x26, 0xbb, 0x67, 0xc1, 0xfe,
  0x49, 0x49, 0x35, 0xf8, 0xc6, 0xc4, 0x3b, 0x68, 0x3a, 0x6f, 0xaf, 0xf9,
  0x36, 0x07, 0xd0, 0x99, 0x0e, 0xbf, 0xeb, 0x51, 0x5a, 0x16, 0xf1, 0xa8,
  0xf0, 0x0c, 0x3b, 0xf8, 0xe4, 0x0b, 0x32, 0xac, 0x2e, 0xed, 0x02, 0xf4,
  0x43, 0xf3, 0x0d, 0xf1, 0xd0, 0x2d, 0xf7, 0xba, 0xc7, 0x0c, 0xc7, 0xab,
  0xbe, 0x1a, 0xad, 0xe5, 0x00, 0x3f, 0x91, 0x1e, 0x58, 0xa7, 0x0d, 0x4c,
  0x0c, 0x3c, 0x50, 0xaa, 0x19, 0xff, 0xee, 0x81, 0xcc, 0xdf, 0x90, 0x3d,
  0x09, 0x15, 0xaf, 0x33, 0x1d, 0x62, 0xff, 0xdd, 0x8c, 0xde, 0x9c, 0x39,
  0xa6, 0x23, 0xe3, 0xd9, 0x2f, 0x56, 0x2e, 0x30, 0xf3, 0x2d, 0x87, 0xb0,
  0x4c, 0xac, 0x32, 0x3f, 0x33, 0xfc, 0x46, 0xe7, 0xae, 0xd1, 0x3d, 0x96,
  0xa9, 0x15, 0x8a, 0x08, 0x8c, 0xc1, 0x63, 0xd3, 0x04, 0xe8, 0x17, 0x05,
  0x05, 0xbb, 0xf9, 0x04, 0xf0, 0x10, 0x20, 0x1c, 0x10, 0x2f, 0x20, 0x16,
  0xe2, 0x03, 0xec, 0x22, 0x0b, 0x0c, 0xec, 0xdc, 0x09, 0xeb, 0x13, 0xfd,
  0xec, 0x00, 0x11, 0xf5, 0xf8, 0x25, 0x00, 0xe9, 0x07, 0x07, 0xe9, 0xeb,
  0xfb, 0x51, 0x15, 0x17, 0xe3, 0x32, 0xf9, 0xfe, 0xff, 0xe2, 0x04, 0x0d,
  0xee, 0xfa, 0x12, 0x2a, 0x00, 0x01, 0x04, 0xf6, 0xdc, 0x04, 0xfa, 0x1b,
  0xd9, 0x34, 0x16, 0xf1, 0x18, 0x3f, 0xe4, 0x0a, 0x03, 0x24, 0x03, 0xf6,
  0xf4, 0x00, 0xf6, 0x16, 0x17, 0x40, 0xf6, 0x20, 0x22, 0x1f, 0x0a, 0xe4,
  0x21, 0x81, 0xfc, 0x05, 0x22, 0xf8, 0xeb, 0x27, 0x0d, 0xe2, 0xfd, 0xe5,
  0x37, 0x0d, 0xf8, 0xf4, 0x0e, 0xea, 0x40, 0x59, 0x14, 0x25, 0xcd, 0x10,
  0xf4, 0x0c, 0x2d, 0xfb, 0x57, 0x50, 0x21, 0x2c, 0xbe, 0xf1, 0x25, 0x40,
  0x0d, 0x59, 0x21, 0xf5, 0x81, 0x2f, 0x13, 0x3d, 0x20, 0xec, 0xe2, 0xcd,
  0xac, 0x01, 0x22, 0x59, 0x03, 0xfe, 0xe8, 0x4a, 0x49, 0xbb, 0x26, 0x05,
  0x93, 0x9c, 0xc9, 0xf7, 0xe5, 0x03, 0x1c, 0x0d, 0x0d, 0x24, 0xf6, 0x0f,
  0xfb, 0xfa, 0x3d, 0x16, 0xe2, 0xfa, 0x30, 0x05, 0x0a, 0xd9, 0x36, 0x06,
  0xe4, 0xde, 0x2d, 0x2d, 0xcf, 0x31, 0x48, 0x25, 0x19, 0xf8, 0xcb, 0x2a,
  0xdc, 0xf9, 0xef, 0x01, 0xea, 0xb2, 0xda, 0x36, 0x17, 0x36, 0x31, 0xf3,
  0x1f, 0xb5, 0xf8, 0x27, 0xa0, 0x08, 0xe4, 0x13, 0xda, 0x9e, 0x17, 0x28,
  0xfa, 0xed, 0xff, 0xff, 0x04, 0x00, 0x00, 0x00, 0x40, 0x00, 0x00, 0x00,
  0xc2, 0xf2, 0xff, 0xff, 0xf0, 0x12, 0x00, 0x00, 0x41, 0x15, 0x00, 0x00,
  0x5e, 0xf5, 0xff, 0xff, 0xfc, 0x0d, 0x00, 0x00, 0x7a, 0x0a, 0x00, 0x00,
  0xee, 0x07, 0x00, 0x00, 0x4e, 0xfa, 0xff, 0xff, 0xa4, 0x0c, 0x00, 0x00,
  0xfc, 0x09, 0x00, 0x00, 0x00, 0x00, 0x00, 0x00, 0x2a, 0x0f, 0x00, 0x00,
  0x88, 0x0b, 0x00, 0x00, 0x53, 0xf7, 0xff, 0xff, 0x4f, 0x06, 0x00, 0x00,
  0x07, 0x12, 0x00, 0x00, 0x46, 0xee, 0xff, 0xff, 0x04, 0x00, 0x00, 0x00,
  0x80, 0x06, 0x00, 0x00, 0x10, 0xf5, 0x3a, 0x10, 0xd1, 0x3a, 0x29, 0x12,
  0x4d, 0xb3, 0xf7, 0xec, 0x7f, 0x12, 0x1d, 0x19, 0x17, 0x2f, 0x40, 0xf3,
  0x03, 0x7f, 0xc3, 0xc5, 0xf9, 0x1d, 0xea, 0xa3, 0xdc, 0x97, 0x27, 0xb8,
  0x9e, 0x43, 0xbd, 0x7f, 0xcc, 0x8c, 0x90, 0xe4, 0x90, 0x54, 0x32, 0x3b,
  0xf2, 0xf7, 0xc9, 0x3c, 0x32, 0x4a, 0x3f, 0xd5, 0x4f, 0x81, 0x13, 0xec,
  0x0e, 0x16, 0x19, 0x23, 0x18, 0xde, 0xaf, 0xf8, 0x6e, 0xc0, 0x8b, 0xe4,
  0xe8, 0x83, 0x08, 0xb4, 0x35, 0x81, 0x99, 0xb3, 0xc4, 0x4e, 0x1a, 0xf8,
  0xed, 0xeb, 0xdb, 0x1e, 0x17, 0xf5, 0x3e, 0xf7, 0x2a, 0x06, 0xff, 0x61,
  0x2f, 0xd8, 0x07, 0x7f, 0xe1, 0x39, 0x52, 0x46, 0x38, 0x67, 0x6e, 0x21,
  0x46, 0x7f, 0xc8, 0xaa, 0xfb, 0xed, 0x76, 0x7c, 0x35, 0x1c, 0xd9, 0xe0,
  0xb5, 0xb3, 0x64, 0xa0, 0xed, 0xa9, 0xcc, 0x5f, 0xd7, 0xe3, 0x08, 0x7f,
  0xa3, 0x17, 0x46, 0x1f, 0xff, 0x00, 0x49, 0xcc, 0x03, 0x7f, 0xed, 0xad,
  0xbf, 0x48, 0xf8, 0xd9, 0xd1, 0x2a, 0x42, 0xfc, 0x21, 0x71, 0x1f, 0xca,
  0x66, 0x0e, 0xb3, 0x48, 0x4c, 0x16, 0x7f, 0x55, 0xa2, 0xac, 0xdc, 0x10,
  0x18, 0xe7, 0x81, 0xed, 0xa7, 0x92, 0x9a, 0xf1, 0xb4, 0xb0, 0x57, 0xab,
  0xd6, 0x2c, 0x23, 0xca, 0x81, 0xe1, 0xc5, 0xb8, 0x09, 0xdb, 0xc4, 0xe9,
  0xf2, 0x45, 0x63, 0x8b, 0x14, 0x1a, 0x3a, 0xf0, 0x08, 0x81, 0x29, 0xf8,
  0x22, 0xfe, 0xe2, 0x09, 0x35, 0x0c, 0xa7, 0xea, 0x08, 0x20, 0xb3, 0x5b,
  0x28, 0x69, 0x15, 0xa2, 0xd9, 0xdc, 0x59, 0xee, 0x94, 0xd2, 0x49, 0x7f,
  0xab, 0xd2, 0x1b, 0xd9, 0x0a, 0x95, 0x34, 0x28, 0x08, 0xc0, 0x2d, 0xad,
  0xb2, 0x38, 0xf1, 0x81, 0xe7, 0x23, 0x4d, 0xf3, 0xc7, 0x2f, 0x3e, 0xf2,
  0x05, 0x1c, 0x11, 0x81, 0x05, 0x01, 0xdb, 0xec, 0x50, 0x9e, 0x1b, 0x56,
  0xff, 0x34, 0xd4, 0xb0, 0x81, 0x6e, 0x2a, 0xbc, 0xba, 0xa5, 0xdf, 0xde,
  0xdd, 0x0b, 0x20, 0xde, 0x7f, 0x33, 0xfd, 0x17, 0x33, 0x37, 0xe2, 0x10,
  0x62, 0xd6, 0x19, 0x21, 0xed, 0xa9, 0xf7, 0xe2, 0xdd, 0x81, 0x8f, 0x0c,
  0x54, 0xda, 0xfa, 0x94, 0xb9, 0x27, 0x3d, 0xbd, 0x73, 0x95, 0x4b, 0x87,
  0xb3, 0x33, 0xe4, 0xca, 0xa6, 0xbe, 0x75, 0x14, 0x81, 0x47, 0x21, 0xdc,
  0x3b, 0xd5, 0x71, 0x54, 0x33, 0x94, 0x4e, 0xcd, 0xb5, 0x5e, 0xf1, 0x81,
  0x42, 0xc3, 0x94, 0xb0, 0x3a, 0xd8, 0x1d, 0x5e, 0x44, 0xe5, 0xa4, 0xcf,
  0x17, 0x81, 0x0d, 0x4c, 0xdf, 0xf4, 0xc5, 0x0f, 0xd8, 0x0f, 0x38, 0x25,
  0xe5, 0x36, 0x7f, 0x4b, 0x35, 0x4e, 0xbc, 0xdc, 0xf1, 0xfd, 0x38, 0x6d,
  0xa2, 0xf9, 0x87, 0x3f, 0x53, 0x10, 0x87, 0x08, 0x52, 0x8e, 0xae, 0x1c,
  0xf1, 0x43, 0x1b, 0x81, 0x1b, 0x3e, 0x35, 0xf1, 0x81, 0x3c, 0x10, 0xe2,
  0x1e, 0xd1, 0x38, 0xd0, 0x7e, 0xf3, 0x2a, 0x75, 0x10, 0x0c, 0x75, 0x4d,
  0x39, 0x53, 0x74, 0x29, 0x6f, 0x7f, 0x4d, 0x26, 0xba, 0x22, 0x5a, 0x12,
  0x07, 0x84, 0x48, 0x81, 0xe5, 0x86, 0xd5, 0x4d, 0xb8, 0xc8, 0x9a, 0xc7,
  0x3f, 0x1f, 0x8c, 0xbf, 0xeb, 0x32, 0xf2, 0x13, 0xcd, 0x38, 0xd5, 0xa3,
  0x81, 0xb2, 0x05, 0x4c, 0xb1, 0x1a, 0x30, 0xb5, 0xf4, 0xb7, 0x17, 0x06,
  0x19, 0x81, 0xfb, 0x4b, 0x11, 0xd8, 0xb7, 0xe2, 0xcd, 0x04, 0x0e, 0xaf,
  0x40, 0x2a, 0x9f, 0x2f, 0x2a, 0x32, 0x52, 0x09, 0xd1, 0xa8, 0x1e, 0x81,
  0x22, 0x13, 0xef, 0x24, 0x36, 0xdc, 0xc7, 0xd9, 0xb7, 0x43, 0x33, 0x02,
  0x0b, 0xef, 0xda, 0xf8, 0x81, 0x00, 0x57, 0x3f, 0x63, 0x9f, 0xba, 0x23,
  0x82, 0x94, 0xc5, 0x79, 0x71, 0xb3, 0xa5, 0x9e, 0x7f, 0x2d, 0xaf, 0x0c,
  0xf3, 0x81, 0x3e, 0x8a, 0x0c, 0xf0, 0xb0, 0x40, 0x1d, 0xe9, 0xd2, 0x5c,
  0xdc, 0x07, 0xef, 0xd9, 0x7a, 0xbd, 0x8a, 0xf9, 0x09, 0x87, 0x97, 0x3d,
  0xa1, 0x5d, 0x6a, 0x43, 0x1e, 0x81, 0x0e, 0x34, 0x43, 0x19, 0x54, 0x25,
  0x7f, 0x41, 0x1e, 0x0a, 0x5d, 0x3c, 0xf4, 0x02, 0x3c, 0x13, 0x33, 0x4f,
  0xa6, 0xe3, 0x9b, 0xfa, 0xd5, 0x0b, 0xba, 0xbf, 0x97, 0xbf, 0xfe, 0x10,
  0xe0, 0xdb, 0x41, 0x81, 0xfa, 0x2d, 0xa1, 0x18, 0x30, 0x36, 0x9a, 0xc9,
  0x1b, 0x9a, 0xf5, 0x2c, 0x81, 0x04, 0x90, 0xdd, 0xd5, 0xb1, 0x81, 0xf5,
  0xb7, 0xde, 0xb7, 0x11, 0x30, 0x21, 0x48, 0x46, 0xdd, 0xc5, 0x05, 0x05,
  0x1e, 0x58, 0xcc, 0xfd, 0xc3, 0xcf, 0xde, 0xb6, 0xfc, 0x83, 0xb7, 0x02,
  0x81, 0x65, 0xce, 0x11, 0x4e, 0x2f, 0xce, 0x3f, 0x14, 0xb1, 0x81, 0x28,
  0x28, 0x52, 0x4f, 0xb1, 0xe8, 0x4b, 0x84, 0x17, 0xde, 0x7f, 0x36, 0x1d,
  0x1a, 0x19, 0x0b, 0x1b, 0x07, 0xf8, 0xec, 0xff, 0x37, 0xec, 0x23, 0x20,
  0x5d, 0xa4, 0x0a, 0xf6, 0x92, 0x06, 0x2b, 0xbf, 0x73, 0x7f, 0x0a, 0xd7,
  0x3a, 0xf6, 0xdd, 0x79, 0x1f, 0x17, 0x14, 0xd9, 0x7f, 0x08, 0x21, 0xe4,
  0x27, 0xe8, 0xd5, 0xe1, 0xee, 0x2e, 0xf3, 0xf6, 0x36, 0x7f, 0xe9, 0xf8,
  0xe2, 0x59, 0x58, 0xdf, 0x3f, 0xd5, 0xbe, 0x24, 0xa2, 0x12, 0x4a, 0xb1,
  0x2e, 0x8e, 0x11, 0x11, 0x81, 0x2d, 0x3f, 0xee, 0xc8, 0x33, 0xf5, 0x29,
  0xd0, 0xf3, 0x6d, 0x3d, 0x20, 0x2b, 0x00, 0xfe, 0x48, 0x27, 0xf4, 0xe0,
  0x9a, 0xc7, 0x11, 0x18, 0x81, 0x08, 0x12, 0xd2, 0xa0, 0x92, 0xe4, 0xed,
  0xff, 0x7f, 0x69, 0x67, 0x15, 0xeb, 0x9c, 0x99, 0x04, 0x10, 0x22, 0x37,
  0x14, 0x26, 0x35, 0x73, 0xcf, 0x51, 0xba, 0x6f, 0xca, 0xc3, 0x39, 0xd1,
  0x81, 0xa7, 0xa7, 0xa6, 0x15, 0xc6, 0x50, 0x10, 0x10, 0xa4, 0xf2, 0xfb,
  0x81, 0x1d, 0x87, 0xd9, 0xc7, 0xf9, 0x8e, 0x6f, 0xf2, 0x38, 0x49, 0xf6,
  0x57, 0x65, 0x1d, 0x59, 0x44, 0x1a, 0x01, 0x8d, 0x2e, 0x1d, 0x37, 0x7f,
  0x81, 0xae, 0xd1, 0x55, 0x85, 0x6e, 0x06, 0x5f, 0x84, 0x8c, 0xf2, 0xb8,
  0x31, 0xbd, 0x94, 0xbe, 0xbb, 0x8c, 0xb6, 0x65, 0x7f, 0xf0, 0xd4, 0xf7,
  0x7b, 0x8a, 0x8d, 0x08, 0xd6, 0x71, 0xce, 0xb1, 0x0d, 0x0b, 0x37, 0xca,
  0xb8, 0x3d, 0x21, 0x3a, 0xbf, 0xf9, 0xfe, 0x7f, 0x09, 0x00, 0x64, 0x04,
  0x6b, 0xd7, 0x30, 0x65, 0xf9, 0xf7, 0x93, 0xf8, 0xd0, 0x6a, 0x87, 0x81,
  0xc7, 0x33, 0x28, 0xc2, 0x34, 0xbd, 0xe4, 0x4a, 0x19, 0x1b, 0x01, 0xc2,
  0x7f, 0x2c, 0xc7, 0xbc, 0xe9, 0xe0, 0x2a, 0x10, 0x1d, 0x21, 0x14, 0x31,
  0xb3, 0x19, 0x99, 0x53, 0x13, 0xf0, 0x31, 0xc8, 0xd6, 0xc2, 0xf9, 0x81,
  0x1a, 0x41, 0x1a, 0x23, 0xf5, 0x81, 0x53, 0x27, 0x45, 0x6f, 0xfa, 0x18,
  0x4c, 0x41, 0x03, 0x4b, 0x13, 0xdb, 0x57, 0xc3, 0x52, 0x46, 0xe3, 0xd1,
  0xff, 0x01, 0x37, 0xe2, 0xee, 0x01, 0x7f, 0x2d, 0xfd, 0x5e, 0x2b, 0xda,
  0xed, 0x88, 0x1f, 0x43, 0x7f, 0xca, 0x50, 0x2a, 0x9c, 0xff, 0x83, 0x19,
  0xaa, 0xbd, 0x30, 0xc1, 0x4d, 0x36, 0x9f, 0x9c, 0xf0, 0x1f, 0x7f, 0xa5,
  0x39, 0x0f, 0xc9, 0x9b, 0xdf, 0xe5, 0x03, 0x54, 0xa2, 0x11, 0x6c, 0x59,
  0xdf, 0x38, 0xa4, 0x7f, 0x5a, 0x03, 0xf4, 0x3d, 0xd2, 0x7f, 0xe5, 0x2f,
  0xc4, 0x51, 0x31, 0xf4, 0x6b, 0x1f, 0xe9, 0xf4, 0x07, 0x2f, 0x07, 0x23,
  0xf7, 0xcd, 0x0d, 0x1b, 0xcb, 0xf9, 0x7f, 0xe2, 0x17, 0xef, 0x1e, 0x40,
  0x2b, 0x0e, 0xe6, 0xdd, 0x5c, 0xd8, 0xf8, 0xfe, 0x17, 0x06, 0xf7, 0x35,
  0x14, 0xa0, 0x3e, 0x31, 0xf1, 0xd4, 0xa6, 0x81, 0x08, 0x81, 0xf4, 0xb6,
  0xfc, 0x0a, 0x72, 0x3b, 0x59, 0xea, 0xa7, 0xf9, 0x45, 0xf9, 0x01, 0xf9,
  0x23, 0xc8, 0x0e, 0x40, 0x18, 0x76, 0x34, 0xb1, 0x10, 0x7f, 0x05, 0xe1,
  0x55, 0xb2, 0x17, 0x72, 0x3e, 0xdc, 0x56, 0xb0, 0x35, 0x9a, 0x81, 0x01,
  0x13, 0xf9, 0x93, 0x53, 0x22, 0x20, 0xf5, 0xb0, 0xe6, 0x64, 0xc8, 0xe6,
  0xc9, 0x30, 0xba, 0x1f, 0x7f, 0x05, 0xf1, 0x11, 0xcd, 0xfb, 0x28, 0xf7,
  0xfe, 0x25, 0xd8, 0x31, 0x8f, 0x37, 0xdc, 0x61, 0xe9, 0x81, 0x0c, 0xf3,
  0xf4, 0xe5, 0xd4, 0xdc, 0xde, 0x5e, 0xa0, 0xc3, 0xd8, 0xb6, 0xd4, 0x40,
  0xd0, 0x16, 0x9a, 0x7f, 0xe8, 0xad, 0xb2, 0x9c, 0xa9, 0x26, 0x7f, 0x1e,
  0x16, 0x54, 0x3a, 0xe4, 0x52, 0xb2, 0xb0, 0xc4, 0x15, 0x0e, 0x1b, 0x29,
  0xf4, 0x4a, 0x7f, 0x09, 0x2f, 0xd3, 0x65, 0x15, 0xe4, 0xdc, 0x31, 0x17,
  0x1a, 0x0d, 0x31, 0x61, 0x23, 0xd9, 0x60, 0x27, 0xec, 0xc8, 0xea, 0x96,
  0x7f, 0xa4, 0xed, 0xd1, 0x0f, 0xd4, 0x30, 0x49, 0xe6, 0x31, 0x39, 0x09,
  0x2a, 0x7f, 0x17, 0x1e, 0x29, 0x22, 0xf8, 0xe3, 0xff, 0x5d, 0xe0, 0x22,
  0x3b, 0xd9, 0x3f, 0xd8, 0x21, 0x3c, 0x48, 0xf8, 0xdd, 0xcd, 0xea, 0x00,
  0x09, 0x11, 0x1b, 0x7f, 0x35, 0xe9, 0x9b, 0xed, 0xca, 0x70, 0xb1, 0x66,
  0xda, 0x7f, 0x48, 0x50, 0x06, 0x9e, 0x15, 0x65, 0x02, 0xac, 0xdc, 0x24,
  0x21, 0x4e, 0xd8, 0x68, 0x1d, 0xaa, 0xf3, 0x4d, 0x7f, 0xbf, 0xbd, 0x99,
  0xf8, 0x1d, 0x35, 0xed, 0x12, 0xa3, 0x7f, 0x59, 0x16, 0x33, 0x1b, 0xe9,
  0x16, 0x31, 0x4d, 0x96, 0x12, 0xd1, 0x16, 0x5a, 0x39, 0x76, 0xf0, 0x91,
  0x7f, 0xac, 0x5d, 0xce, 0x2a, 0xa4, 0x60, 0xa3, 0x2c, 0x50, 0x7b, 0x26,
  0x16, 0xb8, 0x5e, 0x5c, 0x42, 0xc3, 0x35, 0x0e, 0xc7, 0x0e, 0x7f, 0x30,
  0x35, 0x29, 0xb4, 0x25, 0x4d, 0xdd, 0x2d, 0x1a, 0xde, 0x7f, 0xfe, 0x93,
  0x32, 0x12, 0x31, 0x05, 0x42, 0x27, 0x4a, 0x27, 0x2d, 0x7f, 0xed, 0xe5,
  0x1f, 0x21, 0xc1, 0x70, 0xd6, 0xd3, 0xc7, 0x18, 0x88, 0xd5, 0x32, 0x4b,
  0xca, 0x21, 0x6e, 0xd3, 0x07, 0xd3, 0x32, 0xba, 0x5d, 0x0f, 0x7f, 0x46,
  0xa4, 0x0b, 0xc6, 0x51, 0xda, 0x11, 0x0d, 0x30, 0xc8, 0x7f, 0x33, 0x4e,
  0x29, 0x71, 0x02, 0x09, 0xe2, 0x28, 0x90, 0xc6, 0x1e, 0xfd, 0xb5, 0xf0,
  0x12, 0x90, 0x7f, 0x7d, 0x03, 0x68, 0x03, 0xe9, 0xb0, 0x0a, 0x0e, 0xe8,
  0xdc, 0x3a, 0x51, 0x6b, 0x72, 0x4a, 0x13, 0xa4, 0x7f, 0xf5, 0x59, 0x71,
  0x09, 0xce, 0xf4, 0xf3, 0xde, 0xe0, 0x14, 0x1a, 0x7f, 0xe6, 0x0a, 0xb7,
  0x4e, 0x03, 0x13, 0x07, 0x59, 0xbb, 0x3b, 0x97, 0x3d, 0xdf, 0xc1, 0x0e,
  0x0b, 0x3e, 0x8f, 0xa4, 0xe6, 0xb8, 0x81, 0xd5, 0x49, 0x08, 0xa9, 0x47,
  0xeb, 0x81, 0x0a, 0x38, 0xea, 0x21, 0x25, 0xf5, 0x23, 0x4e, 0xe5, 0x12,
  0xcb, 0x35, 0xe4, 0x40, 0x20, 0x59, 0x19, 0xe0, 0x0c, 0x7f, 0xbd, 0x1d,
  0x11, 0xb4, 0x20, 0x31, 0xa7, 0x50, 0x86, 0x4c, 0xaf, 0x81, 0x50, 0xd6,
  0x40, 0x9b, 0x46, 0x10, 0x8e, 0x2f, 0xa6, 0xc1, 0xf0, 0xf1, 0xc5, 0x03,
  0xce, 0x03, 0x24, 0x60, 0x8c, 0xb3, 0x2d, 0x16, 0x0e, 0xea, 0xd9, 0x81,
  0xfa, 0xf4, 0x7f, 0x37, 0x01, 0x00, 0x35, 0xde, 0x45, 0x81, 0x03, 0xda,
  0xdf, 0x5d, 0x08, 0x38, 0xc1, 0xe6, 0x07, 0x39, 0x0d, 0x42, 0x07, 0xbf,
  0x37, 0xe9, 0x0f, 0xe8, 0x73, 0xf4, 0x7f, 0xcb, 0xed, 0x0c, 0x21, 0x25,
  0x4d, 0xa6, 0x81, 0x51, 0xe1, 0xda, 0x8f, 0x4e, 0x93, 0x53, 0x15, 0x98,
  0x2a, 0x52, 0x5a, 0xf2, 0xfb, 0xad, 0x22, 0xbb, 0x39, 0xa6, 0x38, 0xde,
  0x81, 0xfe, 0x7c, 0x56, 0x29, 0xf5, 0x2b, 0xe3, 0x20, 0x12, 0x3c, 0xeb,
  0x14, 0xf0, 0x1d, 0xd4, 0x7f, 0xf6, 0x35, 0xe4, 0x11, 0x00, 0x28, 0xe7,
  0xd0, 0x5a, 0x0e, 0x20, 0x3a, 0x26, 0x00, 0x1e, 0xd1, 0xf9, 0xcd, 0x7f,
  0x8e, 0x81, 0x95, 0x69, 0x13, 0xf6, 0x81, 0x95, 0xff, 0x1d, 0x28, 0x8b,
  0x9d, 0xa8, 0x84, 0xa3, 0x1c, 0x02, 0xfd, 0x0b, 0x1c, 0x13, 0xfd, 0x24,
  0xbc, 0x94, 0xdc, 0x20, 0x81, 0x24, 0xfe, 0xa7, 0x81, 0x70, 0x9f, 0x35,
  0xcb, 0xfe, 0xba, 0x9c, 0x24, 0x8f, 0x6a, 0x54, 0x9d, 0x95, 0xe7, 0xed,
  0xfe, 0x13, 0xda, 0xcc, 0x2c, 0x0c, 0x35, 0xf6, 0xaf, 0x7f, 0xdd, 0xcc,
  0xc8, 0x06, 0x2f, 0x22, 0x0f, 0x40, 0x81, 0x22, 0x9a, 0x86, 0xc6, 0xa8,
  0xe9, 0x3c, 0xfb, 0x66, 0xcb, 0x37, 0x0f, 0xd4, 0x03, 0xed, 0x22, 0x2c,
  0x81, 0xe5, 0xf7, 0x2c, 0x1c, 0xe7, 0xcf, 0x27, 0x0c, 0x2d, 0x4d, 0x96,
  0xd2, 0xf4, 0xff, 0xff, 0x04, 0x00, 0x00, 0x00, 0xa0, 0x01, 0x00, 0x00,
  0x3f, 0x0a, 0x00, 0x00, 0x73, 0x02, 0x00, 0x00, 0x61, 0xfb, 0xff, 0xff,
  0xbc, 0xfe, 0xff, 0xff, 0x69, 0xf6, 0xff, 0xff, 0x70, 0x09, 0x00, 0x00,
  0xaf, 0x14, 0x00, 0x00, 0x40, 0x06, 0x00, 0x00, 0xf4, 0x02, 0x00, 0x00,
  0x0c, 0x14, 0x00, 0x00, 0x00, 0x00, 0x00, 0x00, 0x37, 0x01, 0x00, 0x00,
  0xc4, 0x02, 0x00, 0x00, 0x7b, 0x0e, 0x00, 0x00, 0x4e, 0xfb, 0xff, 0xff,
  0x26, 0x05, 0x00, 0x00, 0xb9, 0x00, 0x00, 0x00, 0xf5, 0x07, 0x00, 0x00,
  0x00, 0x00, 0x00, 0x00, 0xb1, 0xfb, 0xff, 0xff, 0xcb, 0xfe, 0xff, 0xff,
  0xaa, 0xf5, 0xff, 0xff, 0x1b, 0x0a, 0x00, 0x00, 0xad, 0xf6, 0xff, 0xff,
  0x33, 0x0d, 0x00, 0x00, 0xf1, 0x10, 0x00, 0x00, 0x49, 0xf2, 0xff, 0xff,
  0xa3, 0xfa, 0xff, 0xff, 0x69, 0xf5, 0xff, 0xff, 0xec, 0x01, 0x00, 0x00,
  0x92, 0x05, 0x00, 0x00, 0x00, 0x00, 0x00, 0x00, 0x1f, 0xf4, 0xff, 0xff,
  0x49, 0xf8, 0xff, 0xff, 0x7a, 0x0a, 0x00, 0x00, 0xb4, 0xf7, 0xff, 0xff,
  0x97, 0xf6, 0xff, 0xff, 0xbd, 0xfa, 0xff, 0xff, 0x00, 0x00, 0x00, 0x00,
  0xf5, 0xf8, 0xff, 0xff, 0x60, 0x04, 0x00, 0x00, 0xd7, 0x0a, 0x00, 0x00,
  0xc7, 0x00, 0x00, 0x00, 0x49, 0x04, 0x00, 0x00, 0x28, 0x0d, 0x00, 0x00,
  0x4c, 0x03, 0x00, 0x00, 0x5e, 0x08, 0x00, 0x00, 0xb5, 0xfa, 0xff, 0xff,
  0x43, 0xfd, 0xff, 0xff, 0x5a, 0x15, 0x00, 0x00, 0x00, 0x00, 0x00, 0x00,
  0xa0, 0xf9, 0xff, 0xff, 0xc8, 0x06, 0x00, 0x00, 0x00, 0x00, 0x00, 0x00,
  0x77, 0x0a, 0x00, 0x00, 0x49, 0xf8, 0xff, 0xff, 0xdd, 0xff, 0xff, 0xff,
  0x94, 0x0b, 0x00, 0x00, 0xc5, 0x03, 0x00, 0x00, 0x00, 0x00, 0x00, 0x00,
  0xd4, 0x01, 0x00, 0x00, 0x9b, 0x05, 0x00, 0x00, 0x87, 0x06, 0x00, 0x00,
  0xe9, 0xf4, 0xff, 0xff, 0xd5, 0xff, 0xff, 0xff, 0x18, 0x16, 0x00, 0x00,
  0x0a, 0xf8, 0xff, 0xff, 0x2f, 0xfe, 0xff, 0xff, 0x43, 0xfe, 0xff, 0xff,
  0x00, 0x00, 0x00, 0x00, 0x8f, 0x0a, 0x00, 0x00, 0xd9, 0x0a, 0x00, 0x00,
  0xf6, 0x03, 0x00, 0x00, 0x18, 0x11, 0x00, 0x00, 0x18, 0x0b, 0x00, 0x00,
  0xd5, 0x04, 0x00, 0x00, 0x4e, 0xf5, 0xff, 0xff, 0x59, 0x04, 0x00, 0x00,
  0x33, 0x05, 0x00, 0x00, 0x88, 0x0e, 0x00, 0x00, 0xd5, 0x05, 0x00, 0x00,
  0x43, 0x07, 0x00, 0x00, 0xc4, 0x0b, 0x00, 0x00, 0x09, 0xff, 0xff, 0xff,
  0xb0, 0xfa, 0xff, 0xff, 0x06, 0x11, 0x00, 0x00, 0xdd, 0x03, 0x00, 0x00,
  0x18, 0xfb, 0xff, 0xff, 0xa1, 0xf8, 0xff, 0xff, 0xf7, 0x0b, 0x00, 0x00,
  0x85, 0xfd, 0xff, 0xff, 0x81, 0xf7, 0xff, 0xff, 0x4f, 0x0b, 0x00, 0x00,
  0x0a, 0x0b, 0x00, 0x00, 0xf4, 0xee, 0xff, 0xff, 0x1a, 0x0a, 0x00, 0x00,
  0x9c, 0x04, 0x00, 0x00, 0xe6, 0x0b, 0x00, 0x00, 0x00, 0x00, 0x00, 0x00,
  0x84, 0xf4, 0xff, 0xff, 0x2a, 0xf6, 0xff, 0xff, 0xdd, 0xfe, 0xff, 0xff,
  0xf1, 0xf6, 0xff, 0xff, 0xe2, 0x04, 0x00, 0x00, 0x7e, 0xf6, 0xff, 0xff,
  0x04, 0x00, 0x00, 0x00, 0xc0, 0x00, 0x00, 0x00, 0x3b, 0x50, 0xa7, 0xbe,
  0x69, 0xaf, 0x38, 0x1a, 0x28, 0x05, 0x43, 0xed, 0xdb, 0xc3, 0xff, 0x81,
  0xde, 0x06, 0x49, 0xcb, 0x16, 0x3a, 0xdc, 0xa0, 0x46, 0xe1, 0x02, 0x33,
  0xcb, 0x3b, 0x2e, 0xd8, 0xe7, 0x33, 0x0d, 0x11, 0xef, 0x1c, 0xbd, 0x09,
  0xde, 0x30, 0xeb, 0x04, 0x17, 0x81, 0xf8, 0x3c, 0xf5, 0xe6, 0x05, 0xaa,
  0x33, 0x27, 0xc9, 0x04, 0x09, 0xd0, 0xe7, 0x17, 0x07, 0x8e, 0x14, 0x1f,
  0x36, 0x23, 0xeb, 0x27, 0x13, 0x38, 0xf1, 0x7f, 0xf8, 0x5d, 0x50, 0x57,
  0xf3, 0x10, 0xc1, 0xa4, 0xdb, 0x10, 0xed, 0x1b, 0xe2, 0xf4, 0x2d, 0x09,
  0xdb, 0x7f, 0x1b, 0x46, 0xe0, 0x19, 0x19, 0x47, 0x81, 0xf2, 0x24, 0xa7,
  0x00, 0x9d, 0x47, 0x04, 0x48, 0x0f, 0xd1, 0x4e, 0xf0, 0x4f, 0x2e, 0xd3,
  0x73, 0xec, 0x83, 0xc3, 0x3e, 0xb6, 0xe7, 0x1a, 0xcc, 0xb4, 0x09, 0x48,
  0x45, 0x26, 0x45, 0x78, 0x46, 0x1b, 0x43, 0xf6, 0x2f, 0x4b, 0xbe, 0x03,
  0x53, 0x1f, 0x29, 0x33, 0xd3, 0x17, 0x7f, 0xaa, 0xd7, 0xad, 0xd5, 0xd9,
  0xc7, 0xf1, 0x07, 0xda, 0xdb, 0x7f, 0x4e, 0xca, 0x29, 0xef, 0x72, 0x54,
  0x04, 0x87, 0x19, 0xd0, 0x48, 0xa5, 0xa4, 0x3f, 0xfa, 0xea, 0xda, 0xde,
  0x21, 0xd5, 0xd4, 0xf1, 0xa3, 0x36, 0xee, 0x1a, 0xc2, 0xe5, 0xef, 0x27,
  0xd7, 0x2c, 0x06, 0xfb, 0xfd, 0x36, 0xf7, 0x81, 0x4a, 0xf7, 0xff, 0xff,
  0x04, 0x00, 0x00, 0x00, 0x20, 0x00, 0x00, 0x00, 0xbd, 0x0d, 0x00, 0x00,
  0xa6, 0x07, 0x00, 0x00, 0x85, 0x05, 0x00, 0x00, 0x58, 0x0c, 0x00, 0x00,
  0x85, 0x0e, 0x00, 0x00, 0xcb, 0x0c, 0x00, 0x00, 0x9e, 0x09, 0x00, 0x00,
  0xa0, 0x01, 0x00, 0x00, 0x76, 0xf7, 0xff, 0xff, 0x04, 0x00, 0x00, 0x00,
  0x80, 0x01, 0x00, 0x00, 0x0e, 0xdd, 0xe3, 0xc3, 0xc6, 0xa5, 0x0a, 0xe8,
  0xa4, 0xed, 0xb1, 0x00, 0x7f, 0x38, 0xaf, 0x6f, 0xdb, 0x0f, 0xbf, 0xde,
  0xf8, 0x0f, 0x1f, 0x19, 0xa6, 0x08, 0xd4, 0x0f, 0xa3, 0x0f, 0x8b, 0xf3,
  0xee, 0x55, 0x7f, 0x5e, 0x8f, 0xf5, 0x54, 0x08, 0x1e, 0x6e, 0x54, 0xdc,
  0x1d, 0x3b, 0x72, 0x53, 0x46, 0xf8, 0xf6, 0x75, 0x7f, 0x1a, 0x40, 0xe6,
  0x1c, 0x4e, 0xd5, 0x0d, 0xef, 0x5d, 0x2c, 0x01, 0x56, 0xe7, 0x59, 0x76,
  0x27, 0x66, 0x03, 0xdc, 0x13, 0x02, 0x0d, 0xef, 0xe8, 0xe7, 0x06, 0xe7,
  0x0a, 0x11, 0x11, 0x13, 0x17, 0xde, 0xff, 0x03, 0xc5, 0xd8, 0xed, 0x10,
  0xfa, 0x00, 0x21, 0x81, 0x14, 0x46, 0xae, 0xe1, 0x01, 0xfb, 0xfc, 0xde,
  0x13, 0x0a, 0x13, 0xfa, 0xf0, 0xe3, 0xd5, 0xcb, 0x16, 0xe7, 0x81, 0x1b,
  0x0c, 0xe9, 0xf0, 0x06, 0xd5, 0xff, 0xe4, 0xe0, 0xe4, 0x17, 0xe9, 0x01,
  0xae, 0x0a, 0x81, 0x1a, 0xf9, 0x26, 0xfd, 0x02, 0xf5, 0x13, 0xf4, 0xd1,
  0xf4, 0xde, 0x07, 0xed, 0xd6, 0x81, 0x0d, 0xa1, 0xd4, 0x03, 0xce, 0xeb,
  0x18, 0xb3, 0x16, 0xc8, 0xe7, 0xc1, 0xd8, 0xe0, 0x57, 0x9d, 0xdf, 0xf9,
  0x3c, 0x9a, 0x0a, 0x7d, 0x2d, 0x7f, 0xe2, 0x76, 0xcd, 0xf1, 0xd7, 0x1b,
  0x4e, 0x5f, 0x0e, 0xd5, 0xaa, 0x03, 0x53, 0xb9, 0x44, 0x0f, 0xf5, 0xdb,
  0x29, 0xe5, 0x1a, 0xaa, 0xee, 0x8c, 0x41, 0x2a, 0x67, 0x9f, 0x7f, 0xc4,
  0x6e, 0x6a, 0x0c, 0x0b, 0x34, 0xa9, 0xca, 0x33, 0x18, 0xfb, 0x65, 0xc9,
  0x2a, 0x5b, 0x35, 0x3d, 0x19, 0x0f, 0x6b, 0x23, 0x60, 0x28, 0x6b, 0x0b,
  0x0f, 0x06, 0x29, 0x0d, 0xe9, 0x1a, 0x0d, 0x7f, 0x2f, 0x45, 0xd6, 0x4c,
  0x00, 0xde, 0x16, 0x2b, 0x13, 0xfd, 0xfa, 0xfa, 0xe5, 0xfe, 0x3a, 0xd0,
  0x34, 0x3e, 0x7f, 0x11, 0xef, 0x29, 0x0d, 0xce, 0x31, 0xf8, 0x1f, 0xe5,
  0x3d, 0x42, 0xdf, 0x26, 0x08, 0x7f, 0x53, 0xcb, 0xc8, 0x0f, 0x35, 0x6c,
  0x1b, 0x5c, 0x8f, 0xff, 0x50, 0xcf, 0xd3, 0x12, 0x2d, 0x66, 0x09, 0xe7,
  0x04, 0xc3, 0xb8, 0xc6, 0xe0, 0x1c, 0xcb, 0xea, 0xf7, 0x0b, 0x0e, 0xe2,
  0xb7, 0x26, 0xc1, 0x18, 0x07, 0x08, 0x57, 0x81, 0xea, 0x01, 0xcf, 0xe1,
  0xf9, 0xde, 0xd4, 0x23, 0x6b, 0xe9, 0xe6, 0x1c, 0x29, 0x15, 0xc4, 0x27,
  0x32, 0x60, 0xc7, 0x81, 0xf1, 0xe6, 0xbc, 0x4a, 0x53, 0xd9, 0x44, 0x50,
  0x25, 0x0e, 0x3d, 0x9d, 0x33, 0x22, 0x36, 0x06, 0x08, 0x2f, 0xc0, 0xdd,
  0x36, 0x81, 0xf7, 0xc8, 0x26, 0xe2, 0xea, 0x01, 0xef, 0xee, 0x01, 0xf2,
  0xff, 0xb0, 0xe7, 0x12, 0x34, 0x0e, 0xec, 0xcc, 0xfb, 0x0f, 0x21, 0x2b,
  0xe6, 0x10, 0x1d, 0x21, 0x0e, 0xc2, 0xe3, 0x00, 0x0f, 0xde, 0xdd, 0xe2,
  0x4a, 0x03, 0xd2, 0x7f, 0x02, 0xf9, 0xff, 0xff, 0x04, 0x00, 0x00, 0x00,
  0x40, 0x00, 0x00, 0x00, 0x7d, 0x01, 0x00, 0x00, 0xd9, 0x27, 0x00, 0x00,
  0xac, 0x29, 0x00, 0x00, 0x6a, 0xfe, 0xff, 0xff, 0xdd, 0x00, 0x00, 0x00,
  0x9f, 0xf3, 0xff, 0xff, 0xbf, 0xfe, 0xff, 0xff, 0x5c, 0x29, 0x00, 0x00,
  0x3b, 0x32, 0x00, 0x00, 0x1a, 0x24, 0x00, 0x00, 0x3b, 0x0d, 0x00, 0x00,
  0x72, 0x09, 0x00, 0x00, 0xd3, 0x08, 0x00, 0x00, 0x3c, 0x14, 0x00, 0x00,
  0x73, 0x02, 0x00, 0x00, 0x48, 0x00, 0x00, 0x00, 0x4e, 0xf9, 0xff, 0xff,
  0x04, 0x00, 0x00, 0x00, 0x90, 0x00, 0x00, 0x00, 0xa7, 0x25, 0x0d, 0xd6,
  0xc3, 0x31, 0x08, 0x33, 0x02, 0xdb, 0x33, 0xf0, 0x3f, 0xe9, 0xef, 0x9e,
  0x8d, 0x21, 0x0e, 0xc3, 0xa6, 0x18, 0x14, 0x0e, 0x05, 0xe8, 0xe0, 0x93,
  0x57, 0x36, 0x21, 0xab, 0xdb, 0xc4, 0x23, 0x14, 0xca, 0xda, 0x7f, 0xcc,
  0x13, 0x1f, 0xd1, 0xb0, 0x31, 0x2b, 0x0c, 0x12, 0x0b, 0xf8, 0xda, 0xf9,
  0xf7, 0xe7, 0xd2, 0xde, 0xeb, 0xf0, 0x1c, 0x07, 0xd9, 0x09, 0x25, 0x09,
  0x23, 0xec, 0xaa, 0x00, 0x08, 0x20, 0xee, 0xd9, 0xe0, 0xf3, 0xf0, 0x0b,
  0xd6, 0xfa, 0x06, 0x29, 0x31, 0x02, 0xe1, 0x2f, 0x19, 0xe8, 0x7f, 0xf0,
  0xe0, 0x19, 0xeb, 0x22, 0xfb, 0xe8, 0xb9, 0x15, 0x19, 0x19, 0x3e, 0x06,
  0x11, 0x0c, 0x1c, 0x0e, 0x21, 0x41, 0xf5, 0x05, 0x19, 0x04, 0xbc, 0x0c,
  0xf1, 0x0d, 0x71, 0xf0, 0x11, 0xe3, 0x37, 0x3f, 0x17, 0x28, 0x1a, 0x15,
  0x09, 0x2b, 0x06, 0xfc, 0xf1, 0xf8, 0x50, 0x00, 0x17, 0x81, 0x0c, 0x11,
  0xe5, 0x0b, 0x34, 0x0c, 0xff, 0x01, 0x5a, 0xf5, 0xea, 0xf9, 0xff, 0xff,
  0x04, 0x00, 0x00, 0x00, 0x0c, 0x00, 0x00, 0x00, 0x9f, 0x00, 0x00, 0x00,
  0xec, 0xce, 0x00, 0x00, 0xbf, 0x28, 0x00, 0x00, 0x02, 0xfa, 0xff, 0xff,
  0x04, 0x00, 0x00, 0x00, 0x0c, 0x00, 0x00, 0x00, 0xff, 0xff, 0xff, 0xff,
  0x32, 0x00, 0x00, 0x00, 0x03, 0x00, 0x00, 0x00, 0x1a, 0xfa, 0xff, 0xff,
  0x04, 0x00, 0x00, 0x00, 0x0c, 0x00, 0x00, 0x00, 0x01, 0x00, 0x00, 0x00,
  0x01, 0x00, 0x00, 0x00, 0x01, 0x00, 0x00, 0x00, 0x32, 0xfa, 0xff, 0xff,
  0x04, 0x00, 0x00, 0x00, 0x0c, 0x00, 0x00, 0x00, 0x00, 0x00, 0x00, 0x00,
  0xff, 0xff, 0xff, 0xff, 0x00, 0x00, 0x00, 0x00, 0x4a, 0xfa, 0xff, 0xff,
  0x04, 0x00, 0x00, 0x00, 0x0c, 0x00, 0x00, 0x00, 0x00, 0x00, 0x00, 0x00,
  0x01, 0x00, 0x00, 0x00, 0x00, 0x00, 0x00, 0x00, 0x62, 0xfa, 0xff, 0xff,
  0x04, 0x00, 0x00, 0x00, 0x0c, 0x00, 0x00, 0x00, 0xff, 0xff, 0xff, 0xff,
  0x34, 0x00, 0x00, 0x00, 0x10, 0x00, 0x00, 0x00, 0x7a, 0xfa, 0xff, 0xff,
  0x04, 0x00, 0x00, 0x00, 0x08, 0x00, 0x00, 0x00, 0x34, 0x00, 0x00, 0x00,
  0x10, 0x00, 0x00, 0x00, 0x8e, 0xfa, 0xff, 0xff, 0x04, 0x00, 0x00, 0x00,
  0x0c, 0x00, 0x00, 0x00, 0xff, 0xff, 0xff, 0xff, 0x1a, 0x00, 0x00, 0x00,
  0x08, 0x00, 0x00, 0x00, 0x78, 0xbf, 0xff, 0xff, 0xaa, 0xfa, 0xff, 0xff,
  0x04, 0x00, 0x00, 0x00, 0x08, 0x00, 0x00, 0x00, 0x1a, 0x00, 0x00, 0x00,
  0x08, 0x00, 0x00, 0x00, 0xbe, 0xfa, 0xff, 0xff, 0x04, 0x00, 0x00, 0x00,
  0x04, 0x00, 0x00, 0x00, 0x08, 0x00, 0x00, 0x00, 0xce, 0xfa, 0xff, 0xff,
  0x04, 0x00, 0x00, 0x00, 0x04, 0x00, 0x00, 0x00, 0x0d, 0x00, 0x00, 0x00,
  0xde, 0xfa, 0xff, 0xff, 0x04, 0x00, 0x00, 0x00, 0x04, 0x00, 0x00, 0x00,
  0x01, 0x00, 0x00, 0x00, 0xee, 0xfa, 0xff, 0xff, 0x04, 0x00, 0x00, 0x00,
  0x04, 0x00, 0x00, 0x00, 0x00, 0x00, 0x00, 0x00, 0xfe, 0xfa, 0xff, 0xff,
  0x04, 0x00, 0x00, 0x00, 0x08, 0x00, 0x00, 0x00, 0xff, 0xff, 0xff, 0xff,
  0x68, 0x00, 0x00, 0x00, 0x12, 0xfb, 0xff, 0xff, 0x04, 0x00, 0x00, 0x00,
  0x0c, 0x00, 0x00, 0x00, 0xff, 0xff, 0xff, 0xff, 0x0d, 0x00, 0x00, 0x00,
  0x10, 0x00, 0x00, 0x00, 0x2a, 0xfb, 0xff, 0xff, 0x04, 0x00, 0x00, 0x00,
  0x0c, 0x00, 0x00, 0x00, 0xff, 0xff, 0xff, 0xff, 0x19, 0x00, 0x00, 0x00,
  0x20, 0x00, 0x00, 0x00, 0x42, 0xfb, 0xff, 0xff, 0x04, 0x00, 0x00, 0x00,
  0x04, 0x00, 0x00, 0x00, 0xfd, 0xff, 0xff, 0xff, 0x24, 0xc0, 0xff, 0xff,
  0x28, 0xc0, 0xff, 0xff, 0x0f, 0x00, 0x00, 0x00, 0x4d, 0x4c, 0x49, 0x52,
  0x20, 0x43, 0x6f, 0x6e, 0x76, 0x65, 0x72, 0x74, 0x65, 0x64, 0x2e, 0x00,
  0x01, 0x00, 0x00, 0x00, 0x14, 0x00, 0x00, 0x00, 0x00, 0x00, 0x0e, 0x00,
  0x18, 0x00, 0x14, 0x00, 0x10, 0x00, 0x0c, 0x00, 0x08, 0x00, 0x04, 0x00,
  0x0e, 0x00, 0x00, 0x00, 0x14, 0x00, 0x00, 0x00, 0x1c, 0x00, 0x00, 0x00,
  0x70, 0x07, 0x00, 0x00, 0x74, 0x07, 0x00, 0x00, 0x78, 0x07, 0x00, 0x00,
  0x04, 0x00, 0x00, 0x00, 0x6d, 0x61, 0x69, 0x6e, 0x00, 0x00, 0x00, 0x00,
  0x21, 0x00, 0x00, 0x00, 0x28, 0x07, 0x00, 0x00, 0xc8, 0x06, 0x00, 0x00,
  0x90, 0x06, 0x00, 0x00, 0x54, 0x06, 0x00, 0x00, 0x10, 0x06, 0x00, 0x00,
  0xe8, 0x05, 0x00, 0x00, 0xb8, 0x05, 0x00, 0x00, 0x74, 0x05, 0x00, 0x00,
  0x4c, 0x05, 0x00, 0x00, 0x08, 0x05, 0x00, 0x00, 0xcc, 0x04, 0x00, 0x00,
  0x98, 0x04, 0x00, 0x00, 0x48, 0x04, 0x00, 0x00, 0x04, 0x04, 0x00, 0x00,
  0xdc, 0x03, 0x00, 0x00, 0xa8, 0x03, 0x00, 0x00, 0x68, 0x03, 0x00, 0x00,
  0x40, 0x03, 0x00, 0x00, 0x08, 0x03, 0x00, 0x00, 0xd8, 0x02, 0x00, 0x00,
  0x90, 0x02, 0x00, 0x00, 0x68, 0x02, 0x00, 0x00, 0x34, 0x02, 0x00, 0x00,
  0xf4, 0x01, 0x00, 0x00, 0xcc, 0x01, 0x00, 0x00, 0x94, 0x01, 0x00, 0x00,
  0x64, 0x01, 0x00, 0x00, 0x1c, 0x01, 0x00, 0x00, 0xf4, 0x00, 0x00, 0x00,
  0xa8, 0x00, 0x00, 0x00, 0x78, 0x00, 0x00, 0x00, 0x2c, 0x00, 0x00, 0x00,
  0x04, 0x00, 0x00, 0x00, 0xf6, 0xf9, 0xff, 0xff, 0x0c, 0x00, 0x00, 0x00,
  0x10, 0x00, 0x00, 0x00, 0x02, 0x00, 0x00, 0x00, 0x01, 0x00, 0x00, 0x00,
  0x42, 0x00, 0x00, 0x00, 0x02, 0x00, 0x00, 0x00, 0x41, 0x00, 0x00, 0x00,
  0x11, 0x00, 0x00, 0x00, 0xea, 0xf9, 0xff, 0xff, 0x20, 0x00, 0x00, 0x00,
  0x00, 0x00, 0x00, 0x01, 0x24, 0x00, 0x00, 0x00, 0x28, 0x00, 0x00, 0x00,
  0x01, 0x00, 0x00, 0x00, 0x00, 0x00, 0x0a, 0x00, 0x0c, 0x00, 0x00, 0x00,
  0x08, 0x00, 0x04, 0x00, 0x0a, 0x00, 0x00, 0x00, 0x01, 0x00, 0x00, 0x00,
  0x01, 0x00, 0x00, 0x00, 0x01, 0x00, 0x00, 0x00, 0x41, 0x00, 0x00, 0x00,
  0x03, 0x00, 0x00, 0x00, 0x40, 0x00, 0x00, 0x00, 0x13, 0x00, 0x00, 0x00,
  0x12, 0x00, 0x00, 0x00, 0xd6, 0xf9, 0xff, 0xff, 0x10, 0x00, 0x00, 0x00,
  0x00, 0x00, 0x00, 0x34, 0x0c, 0x00, 0x00, 0x00, 0x10, 0x00, 0x00, 0x00,
  0x84, 0xc1, 0xff, 0xff, 0x01, 0x00, 0x00, 0x00, 0x40, 0x00, 0x00, 0x00,
  0x02, 0x00, 0x00, 0x00, 0x3f, 0x00, 0x00, 0x00, 0x01, 0x00, 0x00, 0x00,
  0x5e, 0xfa, 0xff, 0xff, 0x1c, 0x00, 0x00, 0x00, 0x00, 0x00, 0x00, 0x20,
  0x20, 0x00, 0x00, 0x00, 0x24, 0x00, 0x00, 0x00, 0x05, 0x00, 0x00, 0x00,
  0x08, 0x00, 0x0c, 0x00, 0x08, 0x00, 0x04, 0x00, 0x08, 0x00, 0x00, 0x00,
  0x05, 0x00, 0x00, 0x00, 0x05, 0x00, 0x00, 0x00, 0x01, 0x00, 0x00, 0x00,
  0x3f, 0x00, 0x00, 0x00, 0x04, 0x00, 0x00, 0x00, 0x3e, 0x00, 0x00, 0x00,
  0x0e, 0x00, 0x00, 0x00, 0x0f, 0x00, 0x00, 0x00, 0x10, 0x00, 0x00, 0x00,
  0xd6, 0xfa, 0xff, 0xff, 0x0c, 0x00, 0x00, 0x00, 0x10, 0x00, 0x00, 0x00,
  0x02, 0x00, 0x00, 0x00, 0x01, 0x00, 0x00, 0x00, 0x3e, 0x00, 0x00, 0x00,
  0x02, 0x00, 0x00, 0x00, 0x3d, 0x00, 0x00, 0x00, 0x0d, 0x00, 0x00, 0x00,
  0xca, 0xfa, 0xff, 0xff, 0x14, 0x00, 0x00, 0x00, 0x00, 0x00, 0x00, 0x31,
  0x1c, 0x00, 0x00, 0x00, 0x20, 0x00, 0x00, 0x00, 0x08, 0x00, 0x00, 0x00,
  0xbc, 0xfa, 0xff, 0xff, 0x00, 0x00, 0x00, 0x01, 0x01, 0x00, 0x00, 0x00,
  0x02, 0x00, 0x00, 0x00, 0x01, 0x00, 0x00, 0x00, 0x3d, 0x00, 0x00, 0x00,
  0x04, 0x00, 0x00, 0x00, 0x3b, 0x00, 0x00, 0x00, 0x15, 0x00, 0x00, 0x00,
  0x3c, 0x00, 0x00, 0x00, 0x14, 0x00, 0x00, 0x00, 0xb2, 0xfa, 0xff, 0xff,
  0x10, 0x00, 0x00, 0x00, 0x00, 0x00, 0x00, 0x34, 0x0c, 0x00, 0x00, 0x00,
  0x10, 0x00, 0x00, 0x00, 0x60, 0xc2, 0xff, 0xff, 0x01, 0x00, 0x00, 0x00,
  0x3c, 0x00, 0x00, 0x00, 0x02, 0x00, 0x00, 0x00, 0x37, 0x00, 0x00, 0x00,
  0x0a, 0x00, 0x00, 0x00, 0x3a, 0xfb, 0xff, 0xff, 0x14, 0x00, 0x00, 0x00,
  0x00, 0x00, 0x00, 0x0a, 0x10, 0x00, 0x00, 0x00, 0x14, 0x00, 0x00, 0x00,
  0x07, 0x00, 0x00, 0x00, 0x90, 0xc2, 0xff, 0xff, 0x01, 0x00, 0x00, 0x00,
  0x3b, 0x00, 0x00, 0x00, 0x03, 0x00, 0x00, 0x00, 0x3a, 0x00, 0x00, 0x00,
  0x06, 0x00, 0x00, 0x00, 0x0c, 0x00, 0x00, 0x00, 0x9e, 0xfb, 0xff, 0xff,
  0x0c, 0x00, 0x00, 0x00, 0x10, 0x00, 0x00, 0x00, 0x02, 0x00, 0x00, 0x00,
  0x01, 0x00, 0x00, 0x00, 0x3a, 0x00, 0x00, 0x00, 0x02, 0x00, 0x00, 0x00,
  0x39, 0x00, 0x00, 0x00, 0x06, 0x00, 0x00, 0x00, 0x92, 0xfb, 0xff, 0xff,
  0x14, 0x00, 0x00, 0x00, 0x00, 0x00, 0x00, 0x20, 0x14, 0x00, 0x00, 0x00,
  0x18, 0x00, 0x00, 0x00, 0x05, 0x00, 0x00, 0x00, 0xd6, 0xfd, 0xff, 0xff,
  0x01, 0x00, 0x00, 0x00, 0x01, 0x00, 0x00, 0x00, 0x39, 0x00, 0x00, 0x00,
  0x04, 0x00, 0x00, 0x00, 0x38, 0x00, 0x00, 0x00, 0x05, 0x00, 0x00, 0x00,
  0x06, 0x00, 0x00, 0x00, 0x06, 0x00, 0x00, 0x00, 0xce, 0xfb, 0xff, 0xff,
  0x14, 0x00, 0x00, 0x00, 0x00, 0x00, 0x00, 0x37, 0x14, 0x00, 0x00, 0x00,
  0x18, 0x00, 0x00, 0x00, 0x04, 0x00, 0x00, 0x00, 0x5e, 0xfd, 0xff, 0xff,
  0x00, 0x00, 0x00, 0x02, 0x01, 0x00, 0x00, 0x00, 0x38, 0x00, 0x00, 0x00,
  0x01, 0x00, 0x00, 0x00, 0x37, 0x00, 0x00, 0x00, 0x2e, 0xfc, 0xff, 0xff,
  0x0c, 0x00, 0x00, 0x00, 0x10, 0x00, 0x00, 0x00, 0x02, 0x00, 0x00, 0x00,
  0x01, 0x00, 0x00, 0x00, 0x37, 0x00, 0x00, 0x00, 0x02, 0x00, 0x00, 0x00,
  0x36, 0x00, 0x00, 0x00, 0x0b, 0x00, 0x00, 0x00, 0x22, 0xfc, 0xff, 0xff,
  0x14, 0x00, 0x00, 0x00, 0x00, 0x00, 0x00, 0x31, 0x1c, 0x00, 0x00, 0x00,
  0x20, 0x00, 0x00, 0x00, 0x08, 0x00, 0x00, 0x00, 0x14, 0xfc, 0xff, 0xff,
  0x00, 0x00, 0x00, 0x01, 0x01, 0x00, 0x00, 0x00, 0x02, 0x00, 0x00, 0x00,
  0x01, 0x00, 0x00, 0x00, 0x36, 0x00, 0x00, 0x00, 0x04, 0x00, 0x00, 0x00,
  0x34, 0x00, 0x00, 0x00, 0x17, 0x00, 0x00, 0x00, 0x35, 0x00, 0x00, 0x00,
  0x16, 0x00, 0x00, 0x00, 0x0a, 0xfc, 0xff, 0xff, 0x10, 0x00, 0x00, 0x00,
  0x00, 0x00, 0x00, 0x34, 0x0c, 0x00, 0x00, 0x00, 0x10, 0x00, 0x00, 0x00,
  0xb8, 0xc3, 0xff, 0xff, 0x01, 0x00, 0x00, 0x00, 0x35, 0x00, 0x00, 0x00,
  0x02, 0x00, 0x00, 0x00, 0x30, 0x00, 0x00, 0x00, 0x0a, 0x00, 0x00, 0x00,
  0x92, 0xfc, 0xff, 0xff, 0x14, 0x00, 0x00, 0x00, 0x00, 0x00, 0x00, 0x0a,
  0x10, 0x00, 0x00, 0x00, 0x14, 0x00, 0x00, 0x00, 0x07, 0x00, 0x00, 0x00,
  0xe8, 0xc3, 0xff, 0xff, 0x01, 0x00, 0x00, 0x00, 0x34, 0x00, 0x00, 0x00,
  0x03, 0x00, 0x00, 0x00, 0x33, 0x00, 0x00, 0x00, 0x06, 0x00, 0x00, 0x00,
  0x09, 0x00, 0x00, 0x00, 0xf6, 0xfc, 0xff, 0xff, 0x0c, 0x00, 0x00, 0x00,
  0x10, 0x00, 0x00, 0x00, 0x02, 0x00, 0x00, 0x00, 0x01, 0x00, 0x00, 0x00,
  0x33, 0x00, 0x00, 0x00, 0x02, 0x00, 0x00, 0x00, 0x32, 0x00, 0x00, 0x00,
  0x06, 0x00, 0x00, 0x00, 0xea, 0xfc, 0xff, 0xff, 0x14, 0x00, 0x00, 0x00,
  0x00, 0x00, 0x00, 0x20, 0x14, 0x00, 0x00, 0x00, 0x18, 0x00, 0x00, 0x00,
  0x05, 0x00, 0x00, 0x00, 0x2e, 0xff, 0xff, 0xff, 0x01, 0x00, 0x00, 0x00,
  0x01, 0x00, 0x00, 0x00, 0x32, 0x00, 0x00, 0x00, 0x04, 0x00, 0x00, 0x00,
  0x31, 0x00, 0x00, 0x00, 0x05, 0x00, 0x00, 0x00, 0x06, 0x00, 0x00, 0x00,
  0x06, 0x00, 0x00, 0x00, 0x26, 0xfd, 0xff, 0xff, 0x14, 0x00, 0x00, 0x00,
  0x00, 0x00, 0x00, 0x37, 0x14, 0x00, 0x00, 0x00, 0x18, 0x00, 0x00, 0x00,
  0x04, 0x00, 0x00, 0x00, 0xb6, 0xfe, 0xff, 0xff, 0x00, 0x00, 0x00, 0x02,
  0x01, 0x00, 0x00, 0x00, 0x31, 0x00, 0x00, 0x00, 0x01, 0x00, 0x00, 0x00,
  0x30, 0x00, 0x00, 0x00, 0x86, 0xfd, 0xff, 0xff, 0x0c, 0x00, 0x00, 0x00,
  0x10, 0x00, 0x00, 0x00, 0x02, 0x00, 0x00, 0x00, 0x01, 0x00, 0x00, 0x00,
  0x30, 0x00, 0x00, 0x00, 0x02, 0x00, 0x00, 0x00, 0x2c, 0x00, 0x00, 0x00,
  0x2f, 0x00, 0x00, 0x00, 0x7a, 0xfd, 0xff, 0xff, 0x1c, 0x00, 0x00, 0x00,
  0x00, 0x00, 0x00, 0x3b, 0x1c, 0x00, 0x00, 0x00, 0x20, 0x00, 0x00, 0x00,
  0x06, 0x00, 0x00, 0x00, 0x00, 0x00, 0x06, 0x00, 0x08, 0x00, 0x04, 0x00,
  0x06, 0x00, 0x00, 0x00, 0x03, 0x00, 0x00, 0x00, 0x01, 0x00, 0x00, 0x00,
  0x2f, 0x00, 0x00, 0x00, 0x03, 0x00, 0x00, 0x00, 0x2e, 0x00, 0x00, 0x00,
  0x07, 0x00, 0x00, 0x00, 0x08, 0x00, 0x00, 0x00, 0xba, 0xfd, 0xff, 0xff,
  0x24, 0x00, 0x00, 0x00, 0x00, 0x00, 0x00, 0x20, 0x24, 0x00, 0x00, 0x00,
  0x28, 0x00, 0x00, 0x00, 0x05, 0x00, 0x00, 0x00, 0x00, 0x00, 0x0e, 0x00,
  0x08, 0x00, 0x00, 0x00, 0x00, 0x00, 0x00, 0x00, 0x00, 0x00, 0x04, 0x00,
  0x0e, 0x00, 0x00, 0x00, 0x01, 0x00, 0x00, 0x00, 0x01, 0x00, 0x00, 0x00,
  0x2e, 0x00, 0x00, 0x00, 0x04, 0x00, 0x00, 0x00, 0x2d, 0x00, 0x00, 0x00,
  0x05, 0x00, 0x00, 0x00, 0x06, 0x00, 0x00, 0x00, 0x06, 0x00, 0x00, 0x00,
  0x06, 0xfe, 0xff, 0xff, 0x14, 0x00, 0x00, 0x00, 0x00, 0x00, 0x00, 0x37,
  0x14, 0x00, 0x00, 0x00, 0x18, 0x00, 0x00, 0x00, 0x04, 0x00, 0x00, 0x00,
  0x96, 0xff, 0xff, 0xff, 0x00, 0x00, 0x00, 0x02, 0x01, 0x00, 0x00, 0x00,
  0x2d, 0x00, 0x00, 0x00, 0x01, 0x00, 0x00, 0x00, 0x2c, 0x00, 0x00, 0x00,
  0x36, 0xfe, 0xff, 0xff, 0x14, 0x00, 0x00, 0x00, 0x00, 0x00, 0x00, 0x08,
  0x14, 0x00, 0x00, 0x00, 0x18, 0x00, 0x00, 0x00, 0x03, 0x00, 0x00, 0x00,
  0xc6, 0xff, 0xff, 0xff, 0x00, 0x00, 0x00, 0x01, 0x01, 0x00, 0x00, 0x00,
  0x2c, 0x00, 0x00, 0x00, 0x03, 0x00, 0x00, 0x00, 0x2b, 0x00, 0x00, 0x00,
  0x19, 0x00, 0x00, 0x00, 0x18, 0x00, 0x00, 0x00, 0x6e, 0xfe, 0xff, 0xff,
  0x1c, 0x00, 0x00, 0x00, 0x00, 0x00, 0x00, 0x08, 0x1c, 0x00, 0x00, 0x00,
  0x20, 0x00, 0x00, 0x00, 0x03, 0x00, 0x00, 0x00, 0x00, 0x00, 0x06, 0x00,
  0x08, 0x00, 0x07, 0x00, 0x06, 0x00, 0x00, 0x00, 0x00, 0x00, 0x00, 0x01,
  0x01, 0x00, 0x00, 0x00, 0x2b, 0x00, 0x00, 0x00, 0x03, 0x00, 0x00, 0x00,
  0x2a, 0x00, 0x00, 0x00, 0x1b, 0x00, 0x00, 0x00, 0x1a, 0x00, 0x00, 0x00,
  0xde, 0xfe, 0xff, 0xff, 0x0c, 0x00, 0x00, 0x00, 0x10, 0x00, 0x00, 0x00,
  0x02, 0x00, 0x00, 0x00, 0x01, 0x00, 0x00, 0x00, 0x2a, 0x00, 0x00, 0x00,
  0x02, 0x00, 0x00, 0x00, 0x29, 0x00, 0x00, 0x00, 0x04, 0x00, 0x00, 0x00,
  0xd2, 0xfe, 0xff, 0xff, 0x14, 0x00, 0x00, 0x00, 0x00, 0x00, 0x00, 0x01,
  0x1c, 0x00, 0x00, 0x00, 0x20, 0x00, 0x00, 0x00, 0x01, 0x00, 0x00, 0x00,
  0xc4, 0xfe, 0xff, 0xff, 0x00, 0x00, 0x00, 0x01, 0x01, 0x00, 0x00, 0x00,
  0x01, 0x00, 0x00, 0x00, 0x01, 0x00, 0x00, 0x00, 0x29, 0x00, 0x00, 0x00,
  0x03, 0x00, 0x00, 0x00, 0x28, 0x00, 0x00, 0x00, 0x1d, 0x00, 0x00, 0x00,
  0x1c, 0x00, 0x00, 0x00, 0xb6, 0xfe, 0xff, 0xff, 0x10, 0x00, 0x00, 0x00,
  0x00, 0x00, 0x00, 0x34, 0x0c, 0x00, 0x00, 0x00, 0x10, 0x00, 0x00, 0x00,
  0x64, 0xc6, 0xff, 0xff, 0x01, 0x00, 0x00, 0x00, 0x28, 0x00, 0x00, 0x00,
  0x02, 0x00, 0x00, 0x00, 0x27, 0x00, 0x00, 0x00, 0x01, 0x00, 0x00, 0x00,
  0x6e, 0xff, 0xff, 0xff, 0x0c, 0x00, 0x00, 0x00, 0x10, 0x00, 0x00, 0x00,
  0x02, 0x00, 0x00, 0x00, 0x01, 0x00, 0x00, 0x00, 0x27, 0x00, 0x00, 0x00,
  0x02, 0x00, 0x00, 0x00, 0x26, 0x00, 0x00, 0x00, 0x03, 0x00, 0x00, 0x00,
  0x62, 0xff, 0xff, 0xff, 0x14, 0x00, 0x00, 0x00, 0x00, 0x00, 0x00, 0x01,
  0x1c, 0x00, 0x00, 0x00, 0x20, 0x00, 0x00, 0x00, 0x01, 0x00, 0x00, 0x00,
  0x54, 0xff, 0xff, 0xff, 0x00, 0x00, 0x00, 0x01, 0x01, 0x00, 0x00, 0x00,
  0x02, 0x00, 0x00, 0x00, 0x01, 0x00, 0x00, 0x00, 0x26, 0x00, 0x00, 0x00,
  0x03, 0x00, 0x00, 0x00, 0x25, 0x00, 0x00, 0x00, 0x1f, 0x00, 0x00, 0x00,
  0x1e, 0x00, 0x00, 0x00, 0x46, 0xff, 0xff, 0xff, 0x10, 0x00, 0x00, 0x00,
  0x00, 0x00, 0x00, 0x34, 0x0c, 0x00, 0x00, 0x00, 0x10, 0x00, 0x00, 0x00,
  0xf4, 0xc6, 0xff, 0xff, 0x01, 0x00, 0x00, 0x00, 0x25, 0x00, 0x00, 0x00,
  0x02, 0x00, 0x00, 0x00, 0x24, 0x00, 0x00, 0x00, 0x01, 0x00, 0x00, 0x00,
  0x00, 0x00, 0x0a, 0x00, 0x10, 0x00, 0x0c, 0x00, 0x08, 0x00, 0x04, 0x00,
  0x0a, 0x00, 0x00, 0x00, 0x0c, 0x00, 0x00, 0x00, 0x10, 0x00, 0x00, 0x00,
  0x02, 0x00, 0x00, 0x00, 0x01, 0x00, 0x00, 0x00, 0x24, 0x00, 0x00, 0x00,
  0x02, 0x00, 0x00, 0x00, 0x23, 0x00, 0x00, 0x00, 0x02, 0x00, 0x00, 0x00,
  0x00, 0x00, 0x0e, 0x00, 0x18, 0x00, 0x14, 0x00, 0x10, 0x00, 0x0c, 0x00,
  0x0b, 0x00, 0x04, 0x00, 0x0e, 0x00, 0x00, 0x00, 0x20, 0x00, 0x00, 0x00,
  0x00, 0x00, 0x00, 0x01, 0x28, 0x00, 0x00, 0x00, 0x2c, 0x00, 0x00, 0x00,
  0x01, 0x00, 0x00, 0x00, 0x0c, 0x00, 0x10, 0x00, 0x00, 0x00, 0x0c, 0x00,
  0x08, 0x00, 0x07, 0x00, 0x0c, 0x00, 0x00, 0x00, 0x00, 0x00, 0x00, 0x01,
  0x01, 0x00, 0x00, 0x00, 0x02, 0x00, 0x00, 0x00, 0x01, 0x00, 0x00, 0x00,
  0x23, 0x00, 0x00, 0x00, 0x03, 0x00, 0x00, 0x00, 0x22, 0x00, 0x00, 0x00,
  0x21, 0x00, 0x00, 0x00, 0x20, 0x00, 0x00, 0x00, 0x00, 0x00, 0x0e, 0x00,
  0x14, 0x00, 0x00, 0x00, 0x10, 0x00, 0x0c, 0x00, 0x0b, 0x00, 0x04, 0x00,
  0x0e, 0x00, 0x00, 0x00, 0x10, 0x00, 0x00, 0x00, 0x00, 0x00, 0x00, 0x34,
  0x0c, 0x00, 0x00, 0x00, 0x10, 0x00, 0x00, 0x00, 0xbc, 0xc7, 0xff, 0xff,
  0x01, 0x00, 0x00, 0x00, 0x22, 0x00, 0x00, 0x00, 0x02, 0x00, 0x00, 0x00,
  0x00, 0x00, 0x00, 0x00, 0x01, 0x00, 0x00, 0x00, 0x01, 0x00, 0x00, 0x00,
  0x42, 0x00, 0x00, 0x00, 0x01, 0x00, 0x00, 0x00, 0x00, 0x00, 0x00, 0x00,
  0x43, 0x00, 0x00, 0x00, 0x50, 0x38, 0x00, 0x00, 0xf8, 0x37, 0x00, 0x00,
  0xa0, 0x37, 0x00, 0x00, 0x60, 0x37, 0x00, 0x00, 0x20, 0x37, 0x00, 0x00,
  0xe0, 0x36, 0x00, 0x00, 0xa0, 0x36, 0x00, 0x00, 0x64, 0x36, 0x00, 0x00,
  0x28, 0x36, 0x00, 0x00, 0xe8, 0x35, 0x00, 0x00, 0xac, 0x35, 0x00, 0x00,
  0x68, 0x35, 0x00, 0x00, 0x24, 0x35, 0x00, 0x00, 0xe0, 0x34, 0x00, 0x00,
  0x9c, 0x34, 0x00, 0x00, 0x58, 0x34, 0x00, 0x00, 0x14, 0x34, 0x00, 0x00,
  0xd0, 0x33, 0x00, 0x00, 0x58, 0x33, 0x00, 0x00, 0xd4, 0x32, 0x00, 0x00,
  0xc0, 0x31, 0x00, 0x00, 0x9c, 0x30, 0x00, 0x00, 0xe8, 0x2f, 0x00, 0x00,
  0x24, 0x2f, 0x00, 0x00, 0xf0, 0x29, 0x00, 0x00, 0xb4, 0x24, 0x00, 0x00,
  0xa0, 0x23, 0x00, 0x00, 0x84, 0x22, 0x00, 0x00, 0xd0, 0x21, 0x00, 0x00,
  0x0c, 0x21, 0x00, 0x00, 0xf8, 0x1f, 0x00, 0x00, 0xd4, 0x1e, 0x00, 0x00,
  0x00, 0x1d, 0x00, 0x00, 0x1c, 0x1b, 0x00, 0x00, 0x70, 0x1a, 0x00, 0x00,
  0x0c, 0x19, 0x00, 0x00, 0xe4, 0x17, 0x00, 0x00, 0x34, 0x17, 0x00, 0x00,
  0xc8, 0x15, 0x00, 0x00, 0x98, 0x14, 0x00, 0x00, 0xe8, 0x13, 0x00, 0x00,
  0x7c, 0x12, 0x00, 0x00, 0xe8, 0x11, 0x00, 0x00, 0x04, 0x11, 0x00, 0x00,
  0x18, 0x10, 0x00, 0x00, 0xb8, 0x0f, 0x00, 0x00, 0x54, 0x0f, 0x00, 0x00,
  0xec, 0x0e, 0x00, 0x00, 0x54, 0x0e, 0x00, 0x00, 0xec, 0x0d, 0x00, 0x00,
  0x80, 0x0d, 0x00, 0x00, 0x00, 0x0d, 0x00, 0x00, 0x88, 0x0c, 0x00, 0x00,
  0xcc, 0x0b, 0x00, 0x00, 0x28, 0x0a, 0x00, 0x00, 0xd0, 0x08, 0x00, 0x00,
  0x64, 0x08, 0x00, 0x00, 0xf4, 0x07, 0x00, 0x00, 0x70, 0x07, 0x00, 0x00,
  0xf4, 0x06, 0x00, 0x00, 0x30, 0x06, 0x00, 0x00, 0x84, 0x04, 0x00, 0x00,
  0x24, 0x03, 0x00, 0x00, 0x80, 0x02, 0x00, 0x00, 0xd0, 0x01, 0x00, 0x00,
  0x8c, 0x00, 0x00, 0x00, 0x04, 0x00, 0x00, 0x00, 0xd2, 0xc8, 0xff, 0xff,
  0x00, 0x00, 0x00, 0x01, 0x18, 0x00, 0x00, 0x00, 0x24, 0x00, 0x00, 0x00,
  0x44, 0x00, 0x00, 0x00, 0x43, 0x00, 0x00, 0x00, 0x00, 0x00, 0x00, 0x09,
  0x58, 0x00, 0x00, 0x00, 0x03, 0x00, 0x00, 0x00, 0xff, 0xff, 0xff, 0xff,
  0x32, 0x00, 0x00, 0x00, 0x03, 0x00, 0x00, 0x00, 0xbc, 0xc8, 0xff, 0xff,
  0x08, 0x00, 0x00, 0x00, 0x14, 0x00, 0x00, 0x00, 0x01, 0x00, 0x00, 0x00,
  0x93, 0xff, 0xff, 0xff, 0xff, 0xff, 0xff, 0xff, 0x00, 0x00, 0x00, 0x00,
  0x01, 0x00, 0x00, 0x00, 0x4b, 0x96, 0x34, 0x3c, 0x1b, 0x00, 0x00, 0x00,
  0x53, 0x74, 0x61, 0x74, 0x65, 0x66, 0x75, 0x6c, 0x50, 0x61, 0x72, 0x74,
  0x69, 0x74, 0x69, 0x6f, 0x6e, 0x65, 0x64, 0x43, 0x61, 0x6c, 0x6c, 0x5f,
  0x31, 0x3a, 0x30, 0x00, 0x03, 0x00, 0x00, 0x00, 0x01, 0x00, 0x00, 0x00,
  0x32, 0x00, 0x00, 0x00, 0x03, 0x00, 0x00, 0x00, 0x56, 0xc9, 0xff, 0xff,
  0x00, 0x00, 0x00, 0x01, 0x18, 0x00, 0x00, 0x00, 0x28, 0x00, 0x00, 0x00,
  0x44, 0x00, 0x00, 0x00, 0x42, 0x00, 0x00, 0x00, 0x00, 0x00, 0x00, 0x09,
  0x10, 0x01, 0x00, 0x00, 0x04, 0x00, 0x00, 0x00, 0xff, 0xff, 0xff, 0xff,
  0x01, 0x00, 0x00, 0x00, 0x32, 0x00, 0x00, 0x00, 0x03, 0x00, 0x00, 0x00,
  0x44, 0xc9, 0xff, 0xff, 0x08, 0x00, 0x00, 0x00, 0x10, 0x00, 0x00, 0x00,
  0x01, 0x00, 0x00, 0x00, 0x93, 0xff, 0xff, 0xff, 0xff, 0xff, 0xff, 0xff,
  0x01, 0x00, 0x00, 0x00, 0x4b, 0x96, 0x34, 0x3c, 0xd3, 0x00, 0x00, 0x00,
  0x66, 0x75, 0x6e, 0x63, 0x74, 0x69, 0x6f, 0x6e, 0x61, 0x6c, 0x5f, 0x32,
  0x5f, 0x31, 0x2f, 0x73, 0x65, 0x71, 0x75, 0x65, 0x6e, 0x74, 0x69, 0x61,
  0x6c, 0x5f, 0x31, 0x5f, 0x32, 0x2f, 0x63, 0x6f, 0x6e, 0x76, 0x31, 0x64,
  0x5f, 0x33, 0x5f, 0x31, 0x2f, 0x42, 0x69, 0x61, 0x73, 0x41, 0x64, 0x64,
  0x3b, 0x66, 0x75, 0x6e, 0x63, 0x74, 0x69, 0x6f, 0x6e, 0x61, 0x6c, 0x5f,
  0x32, 0x5f, 0x31, 0x2f, 0x73, 0x65, 0x71, 0x75, 0x65, 0x6e, 0x74, 0x69,
  0x61, 0x6c, 0x5f, 0x31, 0x5f, 0x32, 0x2f, 0x63, 0x6f, 0x6e, 0x76, 0x31,
  0x64, 0x5f, 0x33, 0x5f, 0x31, 0x2f, 0x63, 0x6f, 0x6e, 0x76, 0x6f, 0x6c,
  0x75, 0x74, 0x69, 0x6f, 0x6e, 0x2f, 0x53, 0x71, 0x75, 0x65, 0x65, 0x7a,
  0x65, 0x3b, 0x66, 0x75, 0x6e, 0x63, 0x74, 0x69, 0x6f, 0x6e, 0x61, 0x6c,
  0x5f, 0x32, 0x5f, 0x31, 0x2f, 0x73, 0x65, 0x71, 0x75, 0x65, 0x6e, 0x74,
  0x69, 0x61, 0x6c, 0x5f, 0x31, 0x5f, 0x32, 0x2f, 0x63, 0x6f, 0x6e, 0x76,
  0x31, 0x64, 0x5f, 0x33, 0x5f, 0x31, 0x2f, 0x53, 0x71, 0x75, 0x65, 0x65,
  0x7a, 0x65, 0x3b, 0x66, 0x75, 0x6e, 0x63, 0x74, 0x69, 0x6f, 0x6e, 0x61,
  0x6c, 0x5f, 0x32, 0x5f, 0x31, 0x2f, 0x73, 0x65, 0x71, 0x75, 0x65, 0x6e,
  0x74, 0x69, 0x61, 0x6c, 0x5f, 0x31, 0x5f, 0x32, 0x2f, 0x63, 0x6f, 0x6e,
  0x76, 0x31, 0x64, 0x5f, 0x33, 0x5f, 0x31, 0x2f, 0x63, 0x6f, 0x6e, 0x76,
  0x6f, 0x6c, 0x75, 0x74, 0x69, 0x6f, 0x6e, 0x00, 0x04, 0x00, 0x00, 0x00,
  0x01, 0x00, 0x00, 0x00, 0x01, 0x00, 0x00, 0x00, 0x32, 0x00, 0x00, 0x00,
  0x03, 0x00, 0x00, 0x00, 0x96, 0xca, 0xff, 0xff, 0x00, 0x00, 0x00, 0x01,
  0x18, 0x00, 0x00, 0x00, 0x28, 0x00, 0x00, 0x00, 0x44, 0x00, 0x00, 0x00,
  0x41, 0x00, 0x00, 0x00, 0x00, 0x00, 0x00, 0x09, 0x7c, 0x00, 0x00, 0x00,
  0x04, 0x00, 0x00, 0x00, 0xff, 0xff, 0xff, 0xff, 0x01, 0x00, 0x00, 0x00,
  0x32, 0x00, 0x00, 0x00, 0x10, 0x00, 0x00, 0x00, 0x84, 0xca, 0xff, 0xff,
  0x08, 0x00, 0x00, 0x00, 0x10, 0x00, 0x00, 0x00, 0x01, 0x00, 0x00, 0x00,
  0x80, 0xff, 0xff, 0xff, 0xff, 0xff, 0xff, 0xff, 0x01, 0x00, 0x00, 0x00,
  0xc2, 0x2e, 0x18, 0x3c, 0x3f, 0x00, 0x00, 0x00, 0x66, 0x75, 0x6e, 0x63,
  0x74, 0x69, 0x6f, 0x6e, 0x61, 0x6c, 0x5f, 0x32, 0x5f, 0x31, 0x2f, 0x73,
  0x65, 0x71, 0x75, 0x65, 0x6e, 0x74, 0x69, 0x61, 0x6c, 0x5f, 0x31, 0x5f,
  0x32, 0x2f, 0x63, 0x6f, 0x6e, 0x76, 0x31, 0x64, 0x5f, 0x33, 0x5f, 0x31,
  0x2f, 0x63, 0x6f, 0x6e, 0x76, 0x6f, 0x6c, 0x75, 0x74, 0x69, 0x6f, 0x6e,
  0x2f, 0x45, 0x78, 0x70, 0x61, 0x6e, 0x64, 0x44, 0x69, 0x6d, 0x73, 0x00,
  0x04, 0x00, 0x00, 0x00, 0x01, 0x00, 0x00, 0x00, 0x01, 0x00, 0x00, 0x00,
  0x32, 0x00, 0x00, 0x00, 0x10, 0x00, 0x00, 0x00, 0x42, 0xcb, 0xff, 0xff,
  0x00, 0x00, 0x00, 0x01, 0x18, 0x00, 0x00, 0x00, 0x24, 0x00, 0x00, 0x00,
  0x40, 0x00, 0x00, 0x00, 0x40, 0x00, 0x00, 0x00, 0x00, 0x00, 0x00, 0x09,
  0x74, 0x00, 0x00, 0x00, 0x03, 0x00, 0x00, 0x00, 0xff, 0xff, 0xff, 0xff,
  0x32, 0x00, 0x00, 0x00, 0x10, 0x00, 0x00, 0x00, 0x2c, 0xcb, 0xff, 0xff,
  0x08, 0x00, 0x00, 0x00, 0x10, 0x00, 0x00, 0x00, 0x01, 0x00, 0x00, 0x00,
  0x80, 0xff, 0xff, 0xff, 0xff, 0xff, 0xff, 0xff, 0x01, 0x00, 0x00, 0x00,
  0xc2, 0x2e, 0x18, 0x3c, 0x38, 0x00, 0x00, 0x00, 0x66, 0x75, 0x6e, 0x63,
  0x74, 0x69, 0x6f, 0x6e, 0x61, 0x6c, 0x5f, 0x32, 0x5f, 0x31, 0x2f, 0x73,
  0x65, 0x71, 0x75, 0x65, 0x6e, 0x74, 0x69, 0x61, 0x6c, 0x5f, 0x31, 0x5f,
  0x32, 0x2f, 0x63, 0x72, 0x6f, 0x70, 0x70, 0x69, 0x6e, 0x67, 0x31, 0x64,
  0x5f, 0x31, 0x2f, 0x73, 0x74, 0x72, 0x69, 0x64, 0x65, 0x64, 0x5f, 0x73,
  0x6c, 0x69, 0x63, 0x65, 0x00, 0x00, 0x00, 0x00, 0x03, 0x00, 0x00, 0x00,
  0x01, 0x00, 0x00, 0x00, 0x32, 0x00, 0x00, 0x00, 0x10, 0x00, 0x00, 0x00,
  0xe2, 0xcb, 0xff, 0xff, 0x00, 0x00, 0x00, 0x01, 0x18, 0x00, 0x00, 0x00,
  0x24, 0x00, 0x00, 0x00, 0x40, 0x00, 0x00, 0x00, 0x3f, 0x00, 0x00, 0x00,
  0x00, 0x00, 0x00, 0x09, 0x30, 0x01, 0x00, 0x00, 0x03, 0x00, 0x00, 0x00,
  0xff, 0xff, 0xff, 0xff, 0x34, 0x00, 0x00, 0x00, 0x10, 0x00, 0x00, 0x00,
  0xcc, 0xcb, 0xff, 0xff, 0x08, 0x00, 0x00, 0x00, 0x10, 0x00, 0x00, 0x00,
  0x01, 0x00, 0x00, 0x00, 0x80, 0xff, 0xff, 0xff, 0xff, 0xff, 0xff, 0xff,
  0x01, 0x00, 0x00, 0x00, 0xc2, 0x2e, 0x18, 0x3c, 0xf7, 0x00, 0x00, 0x00,
  0x66, 0x75, 0x6e, 0x63, 0x74, 0x69, 0x6f, 0x6e, 0x61, 0x6c, 0x5f, 0x32,
  0x5f, 0x31, 0x2f, 0x73, 0x65, 0x71, 0x75, 0x65, 0x6e, 0x74, 0x69, 0x61,
  0x6c, 0x5f, 0x31, 0x5f, 0x32, 0x2f, 0x63, 0x6f, 0x6e, 0x76, 0x31, 0x64,
  0x5f, 0x74, 0x72, 0x61, 0x6e, 0x73, 0x70, 0x6f, 0x73, 0x65, 0x5f, 0x31,
  0x5f, 0x32, 0x2f, 0x52, 0x65, 0x6c, 0x75, 0x3b, 0x66, 0x75, 0x6e, 0x63,
  0x74, 0x69, 0x6f, 0x6e, 0x61, 0x6c, 0x5f, 0x32, 0x5f, 0x31, 0x2f, 0x73,
  0x65, 0x71, 0x75, 0x65, 0x6e, 0x74, 0x69, 0x61, 0x6c, 0x5f, 0x31, 0x5f,
  0x32, 0x2f, 0x63, 0x6f, 0x6e, 0x76, 0x31, 0x64, 0x5f, 0x74, 0x72, 0x61,
  0x6e, 0x73, 0x70, 0x6f, 0x73, 0x65, 0x5f, 0x31, 0x5f, 0x32, 0x2f, 0x42,
  0x69, 0x61, 0x73, 0x41, 0x64, 0x64, 0x3b, 0x66, 0x75, 0x6e, 0x63, 0x74,
  0x69, 0x6f, 0x6e, 0x61, 0x6c, 0x5f, 0x32, 0x5f, 0x31, 0x2f, 0x73, 0x65,
  0x71, 0x75, 0x65, 0x6e, 0x74, 0x69, 0x61, 0x6c, 0x5f, 0x31, 0x5f, 0x32,
  0x2f, 0x63, 0x6f, 0x6e, 0x76, 0x31, 0x64, 0x5f, 0x74, 0x72, 0x61, 0x6e,
  0x73, 0x70, 0x6f, 0x73, 0x65, 0x5f, 0x31, 0x5f, 0x32, 0x2f, 0x63, 0x6f,
  0x6e, 0x76, 0x5f, 0x74, 0x72, 0x61, 0x6e, 0x73, 0x70, 0x6f, 0x73, 0x65,
  0x2f, 0x53, 0x71, 0x75, 0x65, 0x65, 0x7a, 0x65, 0x3b, 0x66, 0x75, 0x6e,
  0x63, 0x74, 0x69, 0x6f, 0x6e, 0x61, 0x6c, 0x5f, 0x32, 0x5f, 0x31, 0x2f,
  0x73, 0x65, 0x71, 0x75, 0x65, 0x6e, 0x74, 0x69, 0x61, 0x6c, 0x5f, 0x31,
  0x5f, 0x32, 0x2f, 0x63, 0x6f, 0x6e, 0x76, 0x31, 0x64, 0x5f, 0x74, 0x72,
  0x61, 0x6e, 0x73, 0x70, 0x6f, 0x73, 0x65, 0x5f, 0x31, 0x5f, 0x32, 0x2f,
  0x53, 0x71, 0x75, 0x65, 0x65, 0x7a, 0x65, 0x00, 0x03, 0x00, 0x00, 0x00,
  0x01, 0x00, 0x00, 0x00, 0x34, 0x00, 0x00, 0x00, 0x10, 0x00, 0x00, 0x00,
  0x3e, 0xcd, 0xff, 0xff, 0x00, 0x00, 0x00, 0x01, 0x18, 0x00, 0x00, 0x00,
  0x28, 0x00, 0x00, 0x00, 0x44, 0x00, 0x00, 0x00, 0x3e, 0x00, 0x00, 0x00,
  0x00, 0x00, 0x00, 0x09, 0x78, 0x01, 0x00, 0x00, 0x04, 0x00, 0x00, 0x00,
  0xff, 0xff, 0xff, 0xff, 0x01, 0x00, 0x00, 0x00, 0x34, 0x00, 0x00, 0x00,
  0x10, 0x00, 0x00, 0x00, 0x2c, 0xcd, 0xff, 0xff, 0x08, 0x00, 0x00, 0x00,
  0x10, 0x00, 0x00, 0x00, 0x01, 0x00, 0x00, 0x00, 0x80, 0xff, 0xff, 0xff,
  0xff, 0xff, 0xff, 0xff, 0x01, 0x00, 0x00, 0x00, 0xc2, 0x2e, 0x18, 0x3c,
  0x39, 0x01, 0x00, 0x00, 0x66, 0x75, 0x6e, 0x63, 0x74, 0x69, 0x6f, 0x6e,
  0x61, 0x6c, 0x5f, 0x32, 0x5f, 0x31, 0x2f, 0x73, 0x65, 0x71, 0x75, 0x65,
  0x6e, 0x74, 0x69, 0x61, 0x6c, 0x5f, 0x31, 0x5f, 0x32, 0x2f, 0x63, 0x6f,
  0x6e, 0x76, 0x31, 0x64, 0x5f, 0x74, 0x72, 0x61, 0x6e, 0x73, 0x70, 0x6f,
  0x73, 0x65, 0x5f, 0x31, 0x5f, 0x32, 0x2f, 0x52, 0x65, 0x6c, 0x75, 0x3b,
  0x66, 0x75, 0x6e, 0x63, 0x74, 0x69, 0x6f, 0x6e, 0x61, 0x6c, 0x5f, 0x32,
  0x5f, 0x31, 0x2f, 0x73, 0x65, 0x71, 0x75, 0x65, 0x6e, 0x74, 0x69, 0x61,
  0x6c, 0x5f, 0x31, 0x5f, 0x32, 0x2f, 0x63, 0x6f, 0x6e, 0x76, 0x31, 0x64,
  0x5f, 0x74, 0x72, 0x61, 0x6e, 0x73, 0x70, 0x6f, 0x73, 0x65, 0x5f, 0x31,
  0x5f, 0x32, 0x2f, 0x42, 0x69, 0x61, 0x73, 0x41, 0x64, 0x64, 0x3b, 0x66,
  0x75, 0x6e, 0x63, 0x74, 0x69, 0x6f, 0x6e, 0x61, 0x6c, 0x5f, 0x32, 0x5f,
  0x31, 0x2f, 0x73, 0x65, 0x71, 0x75, 0x65, 0x6e, 0x74, 0x69, 0x61, 0x6c,
  0x5f, 0x31, 0x5f, 0x32, 0x2f, 0x63, 0x6f, 0x6e, 0x76, 0x31, 0x64, 0x5f,
  0x74, 0x72, 0x61, 0x6e, 0x73, 0x70, 0x6f, 0x73, 0x65, 0x5f, 0x31, 0x5f,
  0x32, 0x2f, 0x63, 0x6f, 0x6e, 0x76, 0x5f, 0x74, 0x72, 0x61, 0x6e, 0x73,
  0x70, 0x6f, 0x73, 0x65, 0x2f, 0x53, 0x71, 0x75, 0x65, 0x65, 0x7a, 0x65,
  0x3b, 0x66, 0x75, 0x6e, 0x63, 0x74, 0x69, 0x6f, 0x6e, 0x61, 0x6c, 0x5f,
  0x32, 0x5f, 0x31, 0x2f, 0x73, 0x65, 0x71, 0x75, 0x65, 0x6e, 0x74, 0x69,
  0x61, 0x6c, 0x5f, 0x31, 0x5f, 0x32, 0x2f, 0x63, 0x6f, 0x6e, 0x76, 0x31,
  0x64, 0x5f, 0x74, 0x72, 0x61, 0x6e, 0x73, 0x70, 0x6f, 0x73, 0x65, 0x5f,
  0x31, 0x5f, 0x32, 0x2f, 0x53, 0x71, 0x75, 0x65, 0x65, 0x7a, 0x65, 0x3b,
  0x66, 0x75, 0x6e, 0x63, 0x74, 0x69, 0x6f, 0x6e, 0x61, 0x6c, 0x5f, 0x32,
  0x5f, 0x31, 0x2f, 0x73, 0x65, 0x71, 0x75, 0x65, 0x6e, 0x74, 0x69, 0x61,
  0x6c, 0x5f, 0x31, 0x5f, 0x32, 0x2f, 0x63, 0x6f, 0x6e, 0x76, 0x31, 0x64,
  0x5f, 0x74, 0x72, 0x61, 0x6e, 0x73, 0x70, 0x6f, 0x73, 0x65, 0x5f, 0x31,
  0x5f, 0x32, 0x2f, 0x63, 0x6f, 0x6e, 0x76, 0x5f, 0x74, 0x72, 0x61, 0x6e,
  0x73, 0x70, 0x6f, 0x73, 0x65, 0x00, 0x00, 0x00, 0x04, 0x00, 0x00, 0x00,
  0x01, 0x00, 0x00, 0x00, 0x01, 0x00, 0x00, 0x00, 0x34, 0x00, 0x00, 0x00,
  0x10, 0x00, 0x00, 0x00, 0xe6, 0xce, 0xff, 0xff, 0x00, 0x00, 0x00, 0x01,
  0x18, 0x00, 0x00, 0x00, 0x28, 0x00, 0x00, 0x00, 0x48, 0x00, 0x00, 0x00,
  0x3d, 0x00, 0x00, 0x00, 0x00, 0x00, 0x00, 0x09, 0x90, 0x00, 0x00, 0x00,
  0x04, 0x00, 0x00, 0x00, 0xff, 0xff, 0xff, 0xff, 0x01, 0x00, 0x00, 0x00,
  0x1a, 0x00, 0x00, 0x00, 0x08, 0x00, 0x00, 0x00, 0xd4, 0xce, 0xff, 0xff,
  0x08, 0x00, 0x00, 0x00, 0x14, 0x00, 0x00, 0x00, 0x01, 0x00, 0x00, 0x00,
  0x80, 0xff, 0xff, 0xff, 0xff, 0xff, 0xff, 0xff, 0x00, 0x00, 0x00, 0x00,
  0x01, 0x00, 0x00, 0x00, 0xf3, 0x1c, 0x2d, 0x3c, 0x4c, 0x00, 0x00, 0x00,
  0x66, 0x75, 0x6e, 0x63, 0x74, 0x69, 0x6f, 0x6e, 0x61, 0x6c, 0x5f, 0x32,
  0x5f, 0x31, 0x2f, 0x73, 0x65, 0x71, 0x75, 0x65, 0x6e, 0x74, 0x69, 0x61,
  0x6c, 0x5f, 0x31, 0x5f, 0x32, 0x2f, 0x63, 0x6f, 0x6e, 0x76, 0x31, 0x64,
  0x5f, 0x74, 0x72, 0x61, 0x6e, 0x73, 0x70, 0x6f, 0x73, 0x65, 0x5f, 0x31,
  0x5f, 0x32, 0x2f, 0x63, 0x6f, 0x6e, 0x76, 0x5f, 0x74, 0x72, 0x61, 0x6e,
  0x73, 0x70, 0x6f, 0x73, 0x65, 0x2f, 0x45, 0x78, 0x70, 0x61, 0x6e, 0x64,
  0x44, 0x69, 0x6d, 0x73, 0x00, 0x00, 0x00, 0x00, 0x04, 0x00, 0x00, 0x00,
  0x01, 0x00, 0x00, 0x00, 0x01, 0x00, 0x00, 0x00, 0x1a, 0x00, 0x00, 0x00,
  0x08, 0x00, 0x00, 0x00, 0xfa, 0xcf, 0xff, 0xff, 0x00, 0x00, 0x00, 0x01,
  0x14, 0x00, 0x00, 0x00, 0x14, 0x00, 0x00, 0x00, 0x3c, 0x00, 0x00, 0x00,
  0x00, 0x00, 0x00, 0x02, 0x58, 0x00, 0x00, 0x00, 0xe4, 0xcf, 0xff, 0xff,
  0x48, 0x00, 0x00, 0x00, 0x66, 0x75, 0x6e, 0x63, 0x74, 0x69, 0x6f, 0x6e,
  0x61, 0x6c, 0x5f, 0x32, 0x5f, 0x31, 0x2f, 0x73, 0x65, 0x71, 0x75, 0x65,
  0x6e, 0x74, 0x69, 0x61, 0x6c, 0x5f, 0x31, 0x5f, 0x32, 0x2f, 0x63, 0x6f,
  0x6e, 0x76, 0x31, 0x64, 0x5f, 0x74, 0x72, 0x61, 0x6e, 0x73, 0x70, 0x6f,
  0x73, 0x65, 0x5f, 0x31, 0x5f, 0x32, 0x2f, 0x63, 0x6f, 0x6e, 0x76, 0x5f,
  0x74, 0x72, 0x61, 0x6e, 0x73, 0x70, 0x6f, 0x73, 0x65, 0x2f, 0x63, 0x6f,
  0x6e, 0x63, 0x61, 0x74, 0x00, 0x00, 0x00, 0x00, 0x01, 0x00, 0x00, 0x00,
  0x04, 0x00, 0x00, 0x00, 0x72, 0xd0, 0xff, 0xff, 0x00, 0x00, 0x00, 0x01,
  0x14, 0x00, 0x00, 0x00, 0x14, 0x00, 0x00, 0x00, 0x3b, 0x00, 0x00, 0x00,
  0x00, 0x00, 0x00, 0x02, 0x60, 0x00, 0x00, 0x00, 0x5c, 0xd0, 0xff, 0xff,
  0x51, 0x00, 0x00, 0x00, 0x66, 0x75, 0x6e, 0x63, 0x74, 0x69, 0x6f, 0x6e,
  0x61, 0x6c, 0x5f, 0x32, 0x5f, 0x31, 0x2f, 0x73, 0x65, 0x71, 0x75, 0x65,
  0x6e, 0x74, 0x69, 0x61, 0x6c, 0x5f, 0x31, 0x5f, 0x32, 0x2f, 0x63, 0x6f,
  0x6e, 0x76, 0x31, 0x64, 0x5f, 0x74, 0x72, 0x61, 0x6e, 0x73, 0x70, 0x6f,
  0x73, 0x65, 0x5f, 0x31, 0x5f, 0x32, 0x2f, 0x63, 0x6f, 0x6e, 0x76, 0x5f,
  0x74, 0x72, 0x61, 0x6e, 0x73, 0x70, 0x6f, 0x73, 0x65, 0x2f, 0x63, 0x6f,
  0x6e, 0x63, 0x61, 0x74, 0x2f, 0x76, 0x61, 0x6c, 0x75, 0x65, 0x73, 0x5f,
  0x30, 0x00, 0x00, 0x00, 0x01, 0x00, 0x00, 0x00, 0x01, 0x00, 0x00, 0x00,
  0xf2, 0xd0, 0xff, 0xff, 0x00, 0x00, 0x00, 0x01, 0x14, 0x00, 0x00, 0x00,
  0x14, 0x00, 0x00, 0x00, 0x3a, 0x00, 0x00, 0x00, 0x00, 0x00, 0x00, 0x02,
  0x50, 0x00, 0x00, 0x00, 0xdc, 0xd0, 0xff, 0xff, 0x40, 0x00, 0x00, 0x00,
  0x66, 0x75, 0x6e, 0x63, 0x74, 0x69, 0x6f, 0x6e, 0x61, 0x6c, 0x5f, 0x32,
  0x5f, 0x31, 0x2f, 0x73, 0x65, 0x71, 0x75, 0x65, 0x6e, 0x74, 0x69, 0x61,
  0x6c, 0x5f, 0x31, 0x5f, 0x32, 0x2f, 0x63, 0x6f, 0x6e, 0x76, 0x31, 0x64,
  0x5f, 0x74, 0x72, 0x61, 0x6e, 0x73, 0x70, 0x6f, 0x73, 0x65, 0x5f, 0x31,
  0x5f, 0x32, 0x2f, 0x73, 0x74, 0x72, 0x69, 0x64, 0x65, 0x64, 0x5f, 0x73,
  0x6c, 0x69, 0x63, 0x65, 0x00, 0x00, 0x00, 0x00, 0x00, 0x00, 0x00, 0x00,
  0x5e, 0xd1, 0xff, 0xff, 0x00, 0x00, 0x00, 0x01, 0x14, 0x00, 0x00, 0x00,
  0x14, 0x00, 0x00, 0x00, 0x39, 0x00, 0x00, 0x00, 0x00, 0x00, 0x00, 0x02,
  0x48, 0x00, 0x00, 0x00, 0x48, 0xd1, 0xff, 0xff, 0x38, 0x00, 0x00, 0x00,
  0x66, 0x75, 0x6e, 0x63, 0x74, 0x69, 0x6f, 0x6e, 0x61, 0x6c, 0x5f, 0x32,
  0x5f, 0x31, 0x2f, 0x73, 0x65, 0x71, 0x75, 0x65, 0x6e, 0x74, 0x69, 0x61,
  0x6c, 0x5f, 0x31, 0x5f, 0x32, 0x2f, 0x63, 0x6f, 0x6e, 0x76, 0x31, 0x64,
  0x5f, 0x74, 0x72, 0x61, 0x6e, 0x73, 0x70, 0x6f, 0x73, 0x65, 0x5f, 0x31,
  0x5f, 0x32, 0x2f, 0x53, 0x68, 0x61, 0x70, 0x65, 0x00, 0x00, 0x00, 0x00,
  0x01, 0x00, 0x00, 0x00, 0x03, 0x00, 0x00, 0x00, 0x72, 0xd1, 0xff, 0xff,
  0x00, 0x00, 0x00, 0x01, 0x18, 0x00, 0x00, 0x00, 0x24, 0x00, 0x00, 0x00,
  0x40, 0x00, 0x00, 0x00, 0x38, 0x00, 0x00, 0x00, 0x00, 0x00, 0x00, 0x09,
  0x28, 0x01, 0x00, 0x00, 0x03, 0x00, 0x00, 0x00, 0xff, 0xff, 0xff, 0xff,
  0x1a, 0x00, 0x00, 0x00, 0x08, 0x00, 0x00, 0x00, 0x5c, 0xd1, 0xff, 0xff,
  0x08, 0x00, 0x00, 0x00, 0x10, 0x00, 0x00, 0x00, 0x01, 0x00, 0x00, 0x00,
  0x80, 0xff, 0xff, 0xff, 0xff, 0xff, 0xff, 0xff, 0x01, 0x00, 0x00, 0x00,
  0xf3, 0x1c, 0x2d, 0x3c, 0xef, 0x00, 0x00, 0x00, 0x66, 0x75, 0x6e, 0x63,
  0x74, 0x69, 0x6f, 0x6e, 0x61, 0x6c, 0x5f, 0x32, 0x5f, 0x31, 0x2f, 0x73,
  0x65, 0x71, 0x75, 0x65, 0x6e, 0x74, 0x69, 0x61, 0x6c, 0x5f, 0x31, 0x5f,
  0x32, 0x2f, 0x63, 0x6f, 0x6e, 0x76, 0x31, 0x64, 0x5f, 0x74, 0x72, 0x61,
  0x6e, 0x73, 0x70, 0x6f, 0x73, 0x65, 0x5f, 0x31, 0x2f, 0x52, 0x65, 0x6c,
  0x75, 0x3b, 0x66, 0x75, 0x6e, 0x63, 0x74, 0x69, 0x6f, 0x6e, 0x61, 0x6c,
  0x5f, 0x32, 0x5f, 0x31, 0x2f, 0x73, 0x65, 0x71, 0x75, 0x65, 0x6e, 0x74,
  0x69, 0x61, 0x6c, 0x5f, 0x31, 0x5f, 0x32, 0x2f, 0x63, 0x6f, 0x6e, 0x76,
  0x31, 0x64, 0x5f, 0x74, 0x72, 0x61, 0x6e, 0x73, 0x70, 0x6f, 0x73, 0x65,
  0x5f, 0x31, 0x2f, 0x42, 0x69, 0x61, 0x73, 0x41, 0x64, 0x64, 0x3b, 0x66,
  0x75, 0x6e, 0x63, 0x74, 0x69, 0x6f, 0x6e, 0x61, 0x6c, 0x5f, 0x32, 0x5f,
  0x31, 0x2f, 0x73, 0x65, 0x71, 0x75, 0x65, 0x6e, 0x74, 0x69, 0x61, 0x6c,
  0x5f, 0x31, 0x5f, 0x32, 0x2f, 0x63, 0x6f, 0x6e, 0x76, 0x31, 0x64, 0x5f,
  0x74, 0x72, 0x61, 0x6e, 0x73, 0x70, 0x6f, 0x73, 0x65, 0x5f, 0x31, 0x2f,
  0x63, 0x6f, 0x6e, 0x76, 0x5f, 0x74, 0x72, 0x61, 0x6e, 0x73, 0x70, 0x6f,
  0x73, 0x65, 0x2f, 0x53, 0x71, 0x75, 0x65, 0x65, 0x7a, 0x65, 0x3b, 0x66,
  0x75, 0x6e, 0x63, 0x74, 0x69, 0x6f, 0x6e, 0x61, 0x6c, 0x5f, 0x32, 0x5f,
  0x31, 0x2f, 0x73, 0x65, 0x71, 0x75, 0x65, 0x6e, 0x74, 0x69, 0x61, 0x6c,
  0x5f, 0x31, 0x5f, 0x32, 0x2f, 0x63, 0x6f, 0x6e, 0x76, 0x31, 0x64, 0x5f,
  0x74, 0x72, 0x61, 0x6e, 0x73, 0x70, 0x6f, 0x73, 0x65, 0x5f, 0x31, 0x2f,
  0x53, 0x71, 0x75, 0x65, 0x65, 0x7a, 0x65, 0x00, 0x03, 0x00, 0x00, 0x00,
  0x01, 0x00, 0x00, 0x00, 0x1a, 0x00, 0x00, 0x00, 0x08, 0x00, 0x00, 0x00,
  0xc6, 0xd2, 0xff, 0xff, 0x00, 0x00, 0x00, 0x01, 0x18, 0x00, 0x00, 0x00,
  0x28, 0x00, 0x00, 0x00, 0x48, 0x00, 0x00, 0x00, 0x37, 0x00, 0x00, 0x00,
  0x00, 0x00, 0x00, 0x09, 0x70, 0x01, 0x00, 0x00, 0x04, 0x00, 0x00, 0x00,
  0xff, 0xff, 0xff, 0xff, 0x01, 0x00, 0x00, 0x00, 0x1a, 0x00, 0x00, 0x00,
  0x08, 0x00, 0x00, 0x00, 0xb4, 0xd2, 0xff, 0xff, 0x08, 0x00, 0x00, 0x00,
  0x14, 0x00, 0x00, 0x00, 0x01, 0x00, 0x00, 0x00, 0x80, 0xff, 0xff, 0xff,
  0xff, 0xff, 0xff, 0xff, 0x00, 0x00, 0x00, 0x00, 0x01, 0x00, 0x00, 0x00,
  0xf3, 0x1c, 0x2d, 0x3c, 0x2f, 0x01, 0x00, 0x00, 0x66, 0x75, 0x6e, 0x63,
  0x74, 0x69, 0x6f, 0x6e, 0x61, 0x6c, 0x5f, 0x32, 0x5f, 0x31, 0x2f, 0x73,
  0x65, 0x71, 0x75, 0x65, 0x6e, 0x74, 0x69, 0x61, 0x6c, 0x5f, 0x31, 0x5f,
  0x32, 0x2f, 0x63, 0x6f, 0x6e, 0x76, 0x31, 0x64, 0x5f, 0x74, 0x72, 0x61,
  0x6e, 0x73, 0x70, 0x6f, 0x73, 0x65, 0x5f, 0x31, 0x2f, 0x52, 0x65, 0x6c,
  0x75, 0x3b, 0x66, 0x75, 0x6e, 0x63, 0x74, 0x69, 0x6f, 0x6e, 0x61, 0x6c,
  0x5f, 0x32, 0x5f, 0x31, 0x2f, 0x73, 0x65, 0x71, 0x75, 0x65, 0x6e, 0x74,
  0x69, 0x61, 0x6c, 0x5f, 0x31, 0x5f, 0x32, 0x2f, 0x63, 0x6f, 0x6e, 0x76,
  0x31, 0x64, 0x5f, 0x74, 0x72, 0x61, 0x6e, 0x73, 0x70, 0x6f, 0x73, 0x65,
  0x5f, 0x31, 0x2f, 0x42, 0x69, 0x61, 0x73, 0x41, 0x64, 0x64, 0x3b, 0x66,
  0x75, 0x6e, 0x63, 0x74, 0x69, 0x6f, 0x6e, 0x61, 0x6c, 0x5f, 0x32, 0x5f,
  0x31, 0x2f, 0x73, 0x65, 0x71, 0x75, 0x65, 0x6e, 0x74, 0x69, 0x61, 0x6c,
  0x5f, 0x31, 0x5f, 0x32, 0x2f, 0x63, 0x6f, 0x6e, 0x76, 0x31, 0x64, 0x5f,
  0x74, 0x72, 0x61, 0x6e, 0x73, 0x70, 0x6f, 0x73, 0x65, 0x5f, 0x31, 0x2f,
  0x63, 0x6f, 0x6e, 0x76, 0x5f, 0x74, 0x72, 0x61, 0x6e, 0x73, 0x70, 0x6f,
  0x73, 0x65, 0x2f, 0x53, 0x71, 0x75, 0x65, 0x65, 0x7a, 0x65, 0x3b, 0x66,
  0x75, 0x6e, 0x63, 0x74, 0x69, 0x6f, 0x6e, 0x61, 0x6c, 0x5f, 0x32, 0x5f,
  0x31, 0x2f, 0x73, 0x65, 0x71, 0x75, 0x65, 0x6e, 0x74, 0x69, 0x61, 0x6c,
  0x5f, 0x31, 0x5f, 0x32, 0x2f, 0x63, 0x6f, 0x6e, 0x76, 0x31, 0x64, 0x5f,
  0x74, 0x72, 0x61, 0x6e, 0x73, 0x70, 0x6f, 0x73, 0x65, 0x5f, 0x31, 0x2f,
  0x53, 0x71, 0x75, 0x65, 0x65, 0x7a, 0x65, 0x3b, 0x66, 0x75, 0x6e, 0x63,
  0x74, 0x69, 0x6f, 0x6e, 0x61, 0x6c, 0x5f, 0x32, 0x5f, 0x31, 0x2f, 0x73,
  0x65, 0x71, 0x75, 0x65, 0x6e, 0x74, 0x69, 0x61, 0x6c, 0x5f, 0x31, 0x5f,
  0x32, 0x2f, 0x63, 0x6f, 0x6e, 0x76, 0x31, 0x64, 0x5f, 0x74, 0x72, 0x61,
  0x6e, 0x73, 0x70, 0x6f, 0x73, 0x65, 0x5f, 0x31, 0x2f, 0x63, 0x6f, 0x6e,
  0x76, 0x5f, 0x74, 0x72, 0x61, 0x6e, 0x73, 0x70, 0x6f, 0x73, 0x65, 0x00,
  0x04, 0x00, 0x00, 0x00, 0x01, 0x00, 0x00, 0x00, 0x01, 0x00, 0x00, 0x00,
  0x1a, 0x00, 0x00, 0x00, 0x08, 0x00, 0x00, 0x00, 0x66, 0xd4, 0xff, 0xff,
  0x00, 0x00, 0x00, 0x01, 0x18, 0x00, 0x00, 0x00, 0x28, 0x00, 0x00, 0x00,
  0x44, 0x00, 0x00, 0x00, 0x36, 0x00, 0x00, 0x00, 0x00, 0x00, 0x00, 0x09,
  0x88, 0x00, 0x00, 0x00, 0x04, 0x00, 0x00, 0x00, 0xff, 0xff, 0xff, 0xff,
  0x01, 0x00, 0x00, 0x00, 0x0d, 0x00, 0x00, 0x00, 0x08, 0x00, 0x00, 0x00,
  0x54, 0xd4, 0xff, 0xff, 0x08, 0x00, 0x00, 0x00, 0x10, 0x00, 0x00, 0x00,
  0x01, 0x00, 0x00, 0x00, 0x80, 0xff, 0xff, 0xff, 0xff, 0xff, 0xff, 0xff,
  0x01, 0x00, 0x00, 0x00, 0x2e, 0xe5, 0x81, 0x3c, 0x4a, 0x00, 0x00, 0x00,
  0x66, 0x75, 0x6e, 0x63, 0x74, 0x69, 0x6f, 0x6e, 0x61, 0x6c, 0x5f, 0x32,
  0x5f, 0x31, 0x2f, 0x73, 0x65, 0x71, 0x75, 0x65, 0x6e, 0x74, 0x69, 0x61,
  0x6c, 0x5f, 0x31, 0x5f, 0x32, 0x2f, 0x63, 0x6f, 0x6e, 0x76, 0x31, 0x64,
  0x5f, 0x74, 0x72, 0x61, 0x6e, 0x73, 0x70, 0x6f, 0x73, 0x65, 0x5f, 0x31,
  0x2f, 0x63, 0x6f, 0x6e, 0x76, 0x5f, 0x74, 0x72, 0x61, 0x6e, 0x73, 0x70,
  0x6f, 0x73, 0x65, 0x2f, 0x45, 0x78, 0x70, 0x61, 0x6e, 0x64, 0x44, 0x69,
  0x6d, 0x73, 0x00, 0x00, 0x04, 0x00, 0x00, 0x00, 0x01, 0x00, 0x00, 0x00,
  0x01, 0x00, 0x00, 0x00, 0x0d, 0x00, 0x00, 0x00, 0x08, 0x00, 0x00, 0x00,
  0x72, 0xd5, 0xff, 0xff, 0x00, 0x00, 0x00, 0x01, 0x14, 0x00, 0x00, 0x00,
  0x14, 0x00, 0x00, 0x00, 0x35, 0x00, 0x00, 0x00, 0x00, 0x00, 0x00, 0x02,
  0x54, 0x00, 0x00, 0x00, 0x5c, 0xd5, 0xff, 0xff, 0x46, 0x00, 0x00, 0x00,
  0x66, 0x75, 0x6e, 0x63, 0x74, 0x69, 0x6f, 0x6e, 0x61, 0x6c, 0x5f, 0x32,
  0x5f, 0x31, 0x2f, 0x73, 0x65, 0x71, 0x75, 0x65, 0x6e, 0x74, 0x69, 0x61,
  0x6c, 0x5f, 0x31, 0x5f, 0x32, 0x2f, 0x63, 0x6f, 0x6e, 0x76, 0x31, 0x64,
  0x5f, 0x74, 0x72, 0x61, 0x6e, 0x73, 0x70, 0x6f, 0x73, 0x65, 0x5f, 0x31,
  0x2f, 0x63, 0x6f, 0x6e, 0x76, 0x5f, 0x74, 0x72, 0x61, 0x6e, 0x73, 0x70,
  0x6f, 0x73, 0x65, 0x2f, 0x63, 0x6f, 0x6e, 0x63, 0x61, 0x74, 0x00, 0x00,
  0x01, 0x00, 0x00, 0x00, 0x04, 0x00, 0x00, 0x00, 0xe6, 0xd5, 0xff, 0xff,
  0x00, 0x00, 0x00, 0x01, 0x14, 0x00, 0x00, 0x00, 0x14, 0x00, 0x00, 0x00,
  0x34, 0x00, 0x00, 0x00, 0x00, 0x00, 0x00, 0x02, 0x5c, 0x00, 0x00, 0x00,
  0xd0, 0xd5, 0xff, 0xff, 0x4f, 0x00, 0x00, 0x00, 0x66, 0x75, 0x6e, 0x63,
  0x74, 0x69, 0x6f, 0x6e, 0x61, 0x6c, 0x5f, 0x32, 0x5f, 0x31, 0x2f, 0x73,
  0x65, 0x71, 0x75, 0x65, 0x6e, 0x74, 0x69, 0x61, 0x6c, 0x5f, 0x31, 0x5f,
  0x32, 0x2f, 0x63, 0x6f, 0x6e, 0x76, 0x31, 0x64, 0x5f, 0x74, 0x72, 0x61,
  0x6e, 0x73, 0x70, 0x6f, 0x73, 0x65, 0x5f, 0x31, 0x2f, 0x63, 0x6f, 0x6e,
  0x76, 0x5f, 0x74, 0x72, 0x61, 0x6e, 0x73, 0x70, 0x6f, 0x73, 0x65, 0x2f,
  0x63, 0x6f, 0x6e, 0x63, 0x61, 0x74, 0x2f, 0x76, 0x61, 0x6c, 0x75, 0x65,
  0x73, 0x5f, 0x30, 0x00, 0x01, 0x00, 0x00, 0x00, 0x01, 0x00, 0x00, 0x00,
  0x62, 0xd6, 0xff, 0xff, 0x00, 0x00, 0x00, 0x01, 0x14, 0x00, 0x00, 0x00,
  0x14, 0x00, 0x00, 0x00, 0x33, 0x00, 0x00, 0x00, 0x00, 0x00, 0x00, 0x02,
  0x4c, 0x00, 0x00, 0x00, 0x4c, 0xd6, 0xff, 0xff, 0x3e, 0x00, 0x00, 0x00,
  0x66, 0x75, 0x6e, 0x63, 0x74, 0x69, 0x6f, 0x6e, 0x61, 0x6c, 0x5f, 0x32,
  0x5f, 0x31, 0x2f, 0x73, 0x65, 0x71, 0x75, 0x65, 0x6e, 0x74, 0x69, 0x61,
  0x6c, 0x5f, 0x31, 0x5f, 0x32, 0x2f, 0x63, 0x6f, 0x6e, 0x76, 0x31, 0x64,
  0x5f, 0x74, 0x72, 0x61, 0x6e, 0x73, 0x70, 0x6f, 0x73, 0x65, 0x5f, 0x31,
  0x2f, 0x73, 0x74, 0x72, 0x69, 0x64, 0x65, 0x64, 0x5f, 0x73, 0x6c, 0x69,
  0x63, 0x65, 0x00, 0x00, 0x00, 0x00, 0x00, 0x00, 0xca, 0xd6, 0xff, 0xff,
  0x00, 0x00, 0x00, 0x01, 0x14, 0x00, 0x00, 0x00, 0x14, 0x00, 0x00, 0x00,
  0x32, 0x00, 0x00, 0x00, 0x00, 0x00, 0x00, 0x02, 0x44, 0x00, 0x00, 0x00,
  0xb4, 0xd6, 0xff, 0xff, 0x36, 0x00, 0x00, 0x00, 0x66, 0x75, 0x6e, 0x63,
  0x74, 0x69, 0x6f, 0x6e, 0x61, 0x6c, 0x5f, 0x32, 0x5f, 0x31, 0x2f, 0x73,
  0x65, 0x71, 0x75, 0x65, 0x6e, 0x74, 0x69, 0x61, 0x6c, 0x5f, 0x31, 0x5f,
  0x32, 0x2f, 0x63, 0x6f, 0x6e, 0x76, 0x31, 0x64, 0x5f, 0x74, 0x72, 0x61,
  0x6e, 0x73, 0x70, 0x6f, 0x73, 0x65, 0x5f, 0x31, 0x2f, 0x53, 0x68, 0x61,
  0x70, 0x65, 0x00, 0x00, 0x01, 0x00, 0x00, 0x00, 0x03, 0x00, 0x00, 0x00,
  0xda, 0xd6, 0xff, 0xff, 0x00, 0x00, 0x00, 0x01, 0x18, 0x00, 0x00, 0x00,
  0x24, 0x00, 0x00, 0x00, 0x40, 0x00, 0x00, 0x00, 0x31, 0x00, 0x00, 0x00,
  0x00, 0x00, 0x00, 0x09, 0x68, 0x00, 0x00, 0x00, 0x03, 0x00, 0x00, 0x00,
  0xff, 0xff, 0xff, 0xff, 0x0d, 0x00, 0x00, 0x00, 0x08, 0x00, 0x00, 0x00,
  0xc4, 0xd6, 0xff, 0xff, 0x08, 0x00, 0x00, 0x00, 0x10, 0x00, 0x00, 0x00,
  0x01, 0x00, 0x00, 0x00, 0x80, 0xff, 0xff, 0xff, 0xff, 0xff, 0xff, 0xff,
  0x01, 0x00, 0x00, 0x00, 0x2e, 0xe5, 0x81, 0x3c, 0x2f, 0x00, 0x00, 0x00,
  0x66, 0x75, 0x6e, 0x63, 0x74, 0x69, 0x6f, 0x6e, 0x61, 0x6c, 0x5f, 0x32,
  0x5f, 0x31, 0x2f, 0x73, 0x65, 0x71, 0x75, 0x65, 0x6e, 0x74, 0x69, 0x61,
  0x6c, 0x5f, 0x31, 0x5f, 0x32, 0x2f, 0x72, 0x65, 0x73, 0x68, 0x61, 0x70,
  0x65, 0x5f, 0x31, 0x2f, 0x52, 0x65, 0x73, 0x68, 0x61, 0x70, 0x65, 0x00,
  0x03, 0x00, 0x00, 0x00, 0x01, 0x00, 0x00, 0x00, 0x0d, 0x00, 0x00, 0x00,
  0x08, 0x00, 0x00, 0x00, 0xc2, 0xd7, 0xff, 0xff, 0x00, 0x00, 0x00, 0x01,
  0x14, 0x00, 0x00, 0x00, 0x14, 0x00, 0x00, 0x00, 0x30, 0x00, 0x00, 0x00,
  0x00, 0x00, 0x00, 0x02, 0x44, 0x00, 0x00, 0x00, 0xac, 0xd7, 0xff, 0xff,
  0x35, 0x00, 0x00, 0x00, 0x66, 0x75, 0x6e, 0x63, 0x74, 0x69, 0x6f, 0x6e,
  0x61, 0x6c, 0x5f, 0x32, 0x5f, 0x31, 0x2f, 0x73, 0x65, 0x71, 0x75, 0x65,
  0x6e, 0x74, 0x69, 0x61, 0x6c, 0x5f, 0x31, 0x5f, 0x32, 0x2f, 0x72, 0x65,
  0x73, 0x68, 0x61, 0x70, 0x65, 0x5f, 0x31, 0x2f, 0x52, 0x65, 0x73, 0x68,
  0x61, 0x70, 0x65, 0x2f, 0x73, 0x68, 0x61, 0x70, 0x65, 0x00, 0x00, 0x00,
  0x01, 0x00, 0x00, 0x00, 0x03, 0x00, 0x00, 0x00, 0x26, 0xd8, 0xff, 0xff,
  0x00, 0x00, 0x00, 0x01, 0x14, 0x00, 0x00, 0x00, 0x14, 0x00, 0x00, 0x00,
  0x2f, 0x00, 0x00, 0x00, 0x00, 0x00, 0x00, 0x02, 0x44, 0x00, 0x00, 0x00,
  0x10, 0xd8, 0xff, 0xff, 0x35, 0x00, 0x00, 0x00, 0x66, 0x75, 0x6e, 0x63,
  0x74, 0x69, 0x6f, 0x6e, 0x61, 0x6c, 0x5f, 0x32, 0x5f, 0x31, 0x2f, 0x73,
  0x65, 0x71, 0x75, 0x65, 0x6e, 0x74, 0x69, 0x61, 0x6c, 0x5f, 0x31, 0x5f,
  0x32, 0x2f, 0x72, 0x65, 0x73, 0x68, 0x61, 0x70, 0x65, 0x5f, 0x31, 0x2f,
  0x73, 0x74, 0x72, 0x69, 0x64, 0x65, 0x64, 0x5f, 0x73, 0x6c, 0x69, 0x63,
  0x65, 0x00, 0x00, 0x00, 0x00, 0x00, 0x00, 0x00, 0x86, 0xd8, 0xff, 0xff,
  0x00, 0x00, 0x00, 0x01, 0x14, 0x00, 0x00, 0x00, 0x14, 0x00, 0x00, 0x00,
  0x2e, 0x00, 0x00, 0x00, 0x00, 0x00, 0x00, 0x02, 0x3c, 0x00, 0x00, 0x00,
  0x70, 0xd8, 0xff, 0xff, 0x2d, 0x00, 0x00, 0x00, 0x66, 0x75, 0x6e, 0x63,
  0x74, 0x69, 0x6f, 0x6e, 0x61, 0x6c, 0x5f, 0x32, 0x5f, 0x31, 0x2f, 0x73,
  0x65, 0x71, 0x75, 0x65, 0x6e, 0x74, 0x69, 0x61, 0x6c, 0x5f, 0x31, 0x5f,
  0x32, 0x2f, 0x72, 0x65, 0x73, 0x68, 0x61, 0x70, 0x65, 0x5f, 0x31, 0x2f,
  0x53, 0x68, 0x61, 0x70, 0x65, 0x00, 0x00, 0x00, 0x01, 0x00, 0x00, 0x00,
  0x02, 0x00, 0x00, 0x00, 0x8e, 0xd8, 0xff, 0xff, 0x00, 0x00, 0x00, 0x01,
  0x18, 0x00, 0x00, 0x00, 0x20, 0x00, 0x00, 0x00, 0x3c, 0x00, 0x00, 0x00,
  0x2d, 0x00, 0x00, 0x00, 0x00, 0x00, 0x00, 0x09, 0xc0, 0x00, 0x00, 0x00,
  0x02, 0x00, 0x00, 0x00, 0xff, 0xff, 0xff, 0xff, 0x68, 0x00, 0x00, 0x00,
  0x74, 0xd8, 0xff, 0xff, 0x08, 0x00, 0x00, 0x00, 0x10, 0x00, 0x00, 0x00,
  0x01, 0x00, 0x00, 0x00, 0x80, 0xff, 0xff, 0xff, 0xff, 0xff, 0xff, 0xff,
  0x01, 0x00, 0x00, 0x00, 0x2e, 0xe5, 0x81, 0x3c, 0x8b, 0x00, 0x00, 0x00,
  0x66, 0x75, 0x6e, 0x63, 0x74, 0x69, 0x6f, 0x6e, 0x61, 0x6c, 0x5f, 0x32,
  0x5f, 0x31, 0x2f, 0x73, 0x65, 0x71, 0x75, 0x65, 0x6e, 0x74, 0x69, 0x61,
  0x6c, 0x5f, 0x31, 0x5f, 0x32, 0x2f, 0x64, 0x65, 0x6e, 0x73, 0x65, 0x5f,
  0x31, 0x5f, 0x31, 0x2f, 0x4d, 0x61, 0x74, 0x4d, 0x75, 0x6c, 0x3b, 0x66,
  0x75, 0x6e, 0x63, 0x74, 0x69, 0x6f, 0x6e, 0x61, 0x6c, 0x5f, 0x32, 0x5f,
  0x31, 0x2f, 0x73, 0x65, 0x71, 0x75, 0x65, 0x6e, 0x74, 0x69, 0x61, 0x6c,
  0x5f, 0x31, 0x5f, 0x32, 0x2f, 0x64, 0x65, 0x6e, 0x73, 0x65, 0x5f, 0x31,
  0x5f, 0x31, 0x2f, 0x52, 0x65, 0x6c, 0x75, 0x3b, 0x66, 0x75, 0x6e, 0x63,
  0x74, 0x69, 0x6f, 0x6e, 0x61, 0x6c, 0x5f, 0x32, 0x5f, 0x31, 0x2f, 0x73,
  0x65, 0x71, 0x75, 0x65, 0x6e, 0x74, 0x69, 0x61, 0x6c, 0x5f, 0x31, 0x5f,
  0x32, 0x2f, 0x64, 0x65, 0x6e, 0x73, 0x65, 0x5f, 0x31, 0x5f, 0x31, 0x2f,
  0x42, 0x69, 0x61, 0x73, 0x41, 0x64, 0x64, 0x00, 0x02, 0x00, 0x00, 0x00,
  0x01, 0x00, 0x00, 0x00, 0x68, 0x00, 0x00, 0x00, 0x76, 0xd9, 0xff, 0xff,
  0x00, 0x00, 0x00, 0x01, 0x18, 0x00, 0x00, 0x00, 0x20, 0x00, 0x00, 0x00,
  0x40, 0x00, 0x00, 0x00, 0x2c, 0x00, 0x00, 0x00, 0x00, 0x00, 0x00, 0x09,
  0xb8, 0x00, 0x00, 0x00, 0x02, 0x00, 0x00, 0x00, 0xff, 0xff, 0xff, 0xff,
  0x10, 0x00, 0x00, 0x00, 0x5c, 0xd9, 0xff, 0xff, 0x08, 0x00, 0x00, 0x00,
  0x14, 0x00, 0x00, 0x00, 0x01, 0x00, 0x00, 0x00, 0x80, 0xff, 0xff, 0xff,
  0xff, 0xff, 0xff, 0xff, 0x00, 0x00, 0x00, 0x00, 0x01, 0x00, 0x00, 0x00,
  0xe2, 0x95, 0x5a, 0x3c, 0x7f, 0x00, 0x00, 0x00, 0x66, 0x75, 0x6e, 0x63,
  0x74, 0x69, 0x6f, 0x6e, 0x61, 0x6c, 0x5f, 0x32, 0x5f, 0x31, 0x2f, 0x73,
  0x65, 0x71, 0x75, 0x65, 0x6e, 0x74, 0x69, 0x61, 0x6c, 0x5f, 0x31, 0x2f,
  0x64, 0x65, 0x6e, 0x73, 0x65, 0x5f, 0x31, 0x2f, 0x4d, 0x61, 0x74, 0x4d,
  0x75, 0x6c, 0x3b, 0x66, 0x75, 0x6e, 0x63, 0x74, 0x69, 0x6f, 0x6e, 0x61,
  0x6c, 0x5f, 0x32, 0x5f, 0x31, 0x2f, 0x73, 0x65, 0x71, 0x75, 0x65, 0x6e,
  0x74, 0x69, 0x61, 0x6c, 0x5f, 0x31, 0x2f, 0x64, 0x65, 0x6e, 0x73, 0x65,
  0x5f, 0x31, 0x2f, 0x52, 0x65, 0x6c, 0x75, 0x3b, 0x66, 0x75, 0x6e, 0x63,
  0x74, 0x69, 0x6f, 0x6e, 0x61, 0x6c, 0x5f, 0x32, 0x5f, 0x31, 0x2f, 0x73,
  0x65, 0x71, 0x75, 0x65, 0x6e, 0x74, 0x69, 0x61, 0x6c, 0x5f, 0x31, 0x2f,
  0x64, 0x65, 0x6e, 0x73, 0x65, 0x5f, 0x31, 0x2f, 0x42, 0x69, 0x61, 0x73,
  0x41, 0x64, 0x64, 0x00, 0x02, 0x00, 0x00, 0x00, 0x01, 0x00, 0x00, 0x00,
  0x10, 0x00, 0x00, 0x00, 0x56, 0xda, 0xff, 0xff, 0x00, 0x00, 0x00, 0x01,
  0x18, 0x00, 0x00, 0x00, 0x20, 0x00, 0x00, 0x00, 0x40, 0x00, 0x00, 0x00,
  0x2b, 0x00, 0x00, 0x00, 0x00, 0x00, 0x00, 0x09, 0x68, 0x00, 0x00, 0x00,
  0x02, 0x00, 0x00, 0x00, 0xff, 0xff, 0xff, 0xff, 0x68, 0x00, 0x00, 0x00,
  0x3c, 0xda, 0xff, 0xff, 0x08, 0x00, 0x00, 0x00, 0x14, 0x00, 0x00, 0x00,
  0x01, 0x00, 0x00, 0x00, 0x80, 0xff, 0xff, 0xff, 0xff, 0xff, 0xff, 0xff,
  0x00, 0x00, 0x00, 0x00, 0x01, 0x00, 0x00, 0x00, 0xe7, 0x23, 0xb4, 0x3b,
  0x2d, 0x00, 0x00, 0x00, 0x66, 0x75, 0x6e, 0x63, 0x74, 0x69, 0x6f, 0x6e,
  0x61, 0x6c, 0x5f, 0x32, 0x5f, 0x31, 0x2f, 0x73, 0x65, 0x71, 0x75, 0x65,
  0x6e, 0x74, 0x69, 0x61, 0x6c, 0x5f, 0x31, 0x2f, 0x66, 0x6c, 0x61, 0x74,
  0x74, 0x65, 0x6e, 0x5f, 0x31, 0x2f, 0x52, 0x65, 0x73, 0x68, 0x61, 0x70,
  0x65, 0x00, 0x00, 0x00, 0x02, 0x00, 0x00, 0x00, 0x01, 0x00, 0x00, 0x00,
  0x68, 0x00, 0x00, 0x00, 0xe6, 0xda, 0xff, 0xff, 0x00, 0x00, 0x00, 0x01,
  0x18, 0x00, 0x00, 0x00, 0x28, 0x00, 0x00, 0x00, 0x48, 0x00, 0x00, 0x00,
  0x2a, 0x00, 0x00, 0x00, 0x00, 0x00, 0x00, 0x09, 0x38, 0x01, 0x00, 0x00,
  0x04, 0x00, 0x00, 0x00, 0xff, 0xff, 0xff, 0xff, 0x01, 0x00, 0x00, 0x00,
  0x0d, 0x00, 0x00, 0x00, 0x08, 0x00, 0x00, 0x00, 0xd4, 0xda, 0xff, 0xff,
  0x08, 0x00, 0x00, 0x00, 0x14, 0x00, 0x00, 0x00, 0x01, 0x00, 0x00, 0x00,
  0x80, 0xff, 0xff, 0xff, 0xff, 0xff, 0xff, 0xff, 0x00, 0x00, 0x00, 0x00,
  0x01, 0x00, 0x00, 0x00, 0xe7, 0x23, 0xb4, 0x3b, 0xf7, 0x00, 0x00, 0x00,
  0x66, 0x75, 0x6e, 0x63, 0x74, 0x69, 0x6f, 0x6e, 0x61, 0x6c, 0x5f, 0x32,
  0x5f, 0x31, 0x2f, 0x73, 0x65, 0x71, 0x75, 0x65, 0x6e, 0x74, 0x69, 0x61,
  0x6c, 0x5f, 0x31, 0x2f, 0x63, 0x6f, 0x6e, 0x76, 0x31, 0x64, 0x5f, 0x32,
  0x5f, 0x31, 0x2f, 0x52, 0x65, 0x6c, 0x75, 0x3b, 0x66, 0x75, 0x6e, 0x63,
  0x74, 0x69, 0x6f, 0x6e, 0x61, 0x6c, 0x5f, 0x32, 0x5f, 0x31, 0x2f, 0x73,
  0x65, 0x71, 0x75, 0x65, 0x6e, 0x74, 0x69, 0x61, 0x6c, 0x5f, 0x31, 0x2f,
  0x63, 0x6f, 0x6e, 0x76, 0x31, 0x64, 0x5f, 0x32, 0x5f, 0x31, 0x2f, 0x42,
  0x69, 0x61, 0x73, 0x41, 0x64, 0x64, 0x3b, 0x66, 0x75, 0x6e, 0x63, 0x74,
  0x69, 0x6f, 0x6e, 0x61, 0x6c, 0x5f, 0x32, 0x5f, 0x31, 0x2f, 0x73, 0x65,
  0x71, 0x75, 0x65, 0x6e, 0x74, 0x69, 0x61, 0x6c, 0x5f, 0x31, 0x2f, 0x63,
  0x6f, 0x6e, 0x76, 0x31, 0x64, 0x5f, 0x32, 0x5f, 0x31, 0x2f, 0x63, 0x6f,
  0x6e, 0x76, 0x6f, 0x6c, 0x75, 0x74, 0x69, 0x6f, 0x6e, 0x2f, 0x53, 0x71,
  0x75, 0x65, 0x65, 0x7a, 0x65, 0x3b, 0x66, 0x75, 0x6e, 0x63, 0x74, 0x69,
  0x6f, 0x6e, 0x61, 0x6c, 0x5f, 0x32, 0x5f, 0x31, 0x2f, 0x73, 0x65, 0x71,
  0x75, 0x65, 0x6e, 0x74, 0x69, 0x61, 0x6c, 0x5f, 0x31, 0x2f, 0x63, 0x6f,
  0x6e, 0x76, 0x31, 0x64, 0x5f, 0x32, 0x5f, 0x31, 0x2f, 0x53, 0x71, 0x75,
  0x65, 0x65, 0x7a, 0x65, 0x3b, 0x66, 0x75, 0x6e, 0x63, 0x74, 0x69, 0x6f,
  0x6e, 0x61, 0x6c, 0x5f, 0x32, 0x5f, 0x31, 0x2f, 0x73, 0x65, 0x71, 0x75,
  0x65, 0x6e, 0x74, 0x69, 0x61, 0x6c, 0x5f, 0x31, 0x2f, 0x63, 0x6f, 0x6e,
  0x76, 0x31, 0x64, 0x5f, 0x32, 0x5f, 0x31, 0x2f, 0x63, 0x6f, 0x6e, 0x76,
  0x6f, 0x6c, 0x75, 0x74, 0x69, 0x6f, 0x6e, 0x00, 0x04, 0x00, 0x00, 0x00,
  0x01, 0x00, 0x00, 0x00, 0x01, 0x00, 0x00, 0x00, 0x0d, 0x00, 0x00, 0x00,
  0x08, 0x00, 0x00, 0x00, 0x4e, 0xdc, 0xff, 0xff, 0x00, 0x00, 0x00, 0x01,
  0x18, 0x00, 0x00, 0x00, 0x28, 0x00, 0x00, 0x00, 0x44, 0x00, 0x00, 0x00,
  0x29, 0x00, 0x00, 0x00, 0x00, 0x00, 0x00, 0x09, 0x7c, 0x00, 0x00, 0x00,
  0x04, 0x00, 0x00, 0x00, 0xff, 0xff, 0xff, 0xff, 0x01, 0x00, 0x00, 0x00,
  0x0d, 0x00, 0x00, 0x00, 0x10, 0x00, 0x00, 0x00, 0x3c, 0xdc, 0xff, 0xff,
  0x08, 0x00, 0x00, 0x00, 0x10, 0x00, 0x00, 0x00, 0x01, 0x00, 0x00, 0x00,
  0x80, 0xff, 0xff, 0xff, 0xff, 0xff, 0xff, 0xff, 0x01, 0x00, 0x00, 0x00,
  0x02, 0xa6, 0xd6, 0x3b, 0x3d, 0x00, 0x00, 0x00, 0x66, 0x75, 0x6e, 0x63,
  0x74, 0x69, 0x6f, 0x6e, 0x61, 0x6c, 0x5f, 0x32, 0x5f, 0x31, 0x2f, 0x73,
  0x65, 0x71, 0x75, 0x65, 0x6e, 0x74, 0x69, 0x61, 0x6c, 0x5f, 0x31, 0x2f,
  0x63, 0x6f, 0x6e, 0x76, 0x31, 0x64, 0x5f, 0x32, 0x5f, 0x31, 0x2f, 0x63,
  0x6f, 0x6e, 0x76, 0x6f, 0x6c, 0x75, 0x74, 0x69, 0x6f, 0x6e, 0x2f, 0x45,
  0x78, 0x70, 0x61, 0x6e, 0x64, 0x44, 0x69, 0x6d, 0x73, 0x00, 0x00, 0x00,
  0x04, 0x00, 0x00, 0x00, 0x01, 0x00, 0x00, 0x00, 0x01, 0x00, 0x00, 0x00,
  0x0d, 0x00, 0x00, 0x00, 0x10, 0x00, 0x00, 0x00, 0xfa, 0xdc, 0xff, 0xff,
  0x00, 0x00, 0x00, 0x01, 0x18, 0x00, 0x00, 0x00, 0x24, 0x00, 0x00, 0x00,
  0x40, 0x00, 0x00, 0x00, 0x28, 0x00, 0x00, 0x00, 0x00, 0x00, 0x00, 0x09,
  0x00, 0x01, 0x00, 0x00, 0x03, 0x00, 0x00, 0x00, 0xff, 0xff, 0xff, 0xff,
  0x0d, 0x00, 0x00, 0x00, 0x10, 0x00, 0x00, 0x00, 0xe4, 0xdc, 0xff, 0xff,
  0x08, 0x00, 0x00, 0x00, 0x10, 0x00, 0x00, 0x00, 0x01, 0x00, 0x00, 0x00,
  0x80, 0xff, 0xff, 0xff, 0xff, 0xff, 0xff, 0xff, 0x01, 0x00, 0x00, 0x00,
  0x02, 0xa6, 0xd6, 0x3b, 0xc4, 0x00, 0x00, 0x00, 0x66, 0x75, 0x6e, 0x63,
  0x74, 0x69, 0x6f, 0x6e, 0x61, 0x6c, 0x5f, 0x32, 0x5f, 0x31, 0x2f, 0x73,
  0x65, 0x71, 0x75, 0x65, 0x6e, 0x74, 0x69, 0x61, 0x6c, 0x5f, 0x31, 0x2f,
  0x63, 0x6f, 0x6e, 0x76, 0x31, 0x64, 0x5f, 0x31, 0x5f, 0x32, 0x2f, 0x52,
  0x65, 0x6c, 0x75, 0x3b, 0x66, 0x75, 0x6e, 0x63, 0x74, 0x69, 0x6f, 0x6e,
  0x61, 0x6c, 0x5f, 0x32, 0x5f, 0x31, 0x2f, 0x73, 0x65, 0x71, 0x75, 0x65,
  0x6e, 0x74, 0x69, 0x61, 0x6c, 0x5f, 0x31, 0x2f, 0x63, 0x6f, 0x6e, 0x76,
  0x31, 0x64, 0x5f, 0x31, 0x5f, 0x32, 0x2f, 0x42, 0x69, 0x61, 0x73, 0x41,
  0x64, 0x64, 0x3b, 0x66, 0x75, 0x6e, 0x63, 0x74, 0x69, 0x6f, 0x6e, 0x61,
  0x6c, 0x5f, 0x32, 0x5f, 0x31, 0x2f, 0x73, 0x65, 0x71, 0x75, 0x65, 0x6e,
  0x74, 0x69, 0x61, 0x6c, 0x5f, 0x31, 0x2f, 0x63, 0x6f, 0x6e, 0x76, 0x31,
  0x64, 0x5f, 0x31, 0x5f, 0x32, 0x2f, 0x63, 0x6f, 0x6e, 0x76, 0x6f, 0x6c,
  0x75, 0x74, 0x69, 0x6f, 0x6e, 0x2f, 0x53, 0x71, 0x75, 0x65, 0x65, 0x7a,
  0x65, 0x3b, 0x66, 0x75, 0x6e, 0x63, 0x74, 0x69, 0x6f, 0x6e, 0x61, 0x6c,
  0x5f, 0x32, 0x5f, 0x31, 0x2f, 0x73, 0x65, 0x71, 0x75, 0x65, 0x6e, 0x74,
  0x69, 0x61, 0x6c, 0x5f, 0x31, 0x2f, 0x63, 0x6f, 0x6e, 0x76, 0x31, 0x64,
  0x5f, 0x31, 0x5f, 0x32, 0x2f, 0x53, 0x71, 0x75, 0x65, 0x65, 0x7a, 0x65,
  0x00, 0x00, 0x00, 0x00, 0x03, 0x00, 0x00, 0x00, 0x01, 0x00, 0x00, 0x00,
  0x0d, 0x00, 0x00, 0x00, 0x10, 0x00, 0x00, 0x00, 0x26, 0xde, 0xff, 0xff,
